{
  "version": "1.0",
  "truncation": null,
  "padding": null,
  "added_tokens": [
    {
      "id": 0,
      "content": "[PAD]",
      "single_word": false,
      "lstrip": false,
      "rstrip": false,
      "normalized": false,
      "special": true
    },
    {
      "id": 1,
      "content": "[UNK]",
      "single_word": false,
      "lstrip": false,
      "rstrip": false,
      "normalized": false,
      "special": true
    },
    {
      "id": 2,
      "content": "[CLS]",
      "single_word": false,
      "lstrip": false,
      "rstrip": false,
      "normalized": false,
      "special": true
    },
    {
      "id": 3,
      "content": "[SEP]",
      "single_word": false,
      "lstrip": false,
      "rstrip": false,
      "normalized": false,
      "special": true
    },
    {
      "id": 4,
      "content": "[MASK]",
      "single_word": false,
      "lstrip": false,
      "rstrip": false,
      "normalized": false,
      "special": true
    }
  ],
  "normalizer": null,
  "pre_tokenizer": {
    "type": "Whitespace"
  },
  "post_processor": null,
  "decoder": null,
  "model": {
    "type": "BPE",
    "dropout": null,
    "unk_token": "[UNK]",
    "continuing_subword_prefix": null,
    "end_of_word_suffix": null,
    "fuse_unk": false,
    "byte_fallback": false,
    "ignore_merges": false,
    "vocab": {
      "[PAD]": 0,
      "[UNK]": 1,
      "[CLS]": 2,
      "[SEP]": 3,
      "[MASK]": 4,
      "!": 5,
      "\"": 6,
      "#": 7,
      "$": 8,
      "%": 9,
      "&": 10,
      "'": 11,
      "(": 12,
      ")": 13,
      "*": 14,
      "+": 15,
      ",": 16,
      "-": 17,
      ".": 18,
      "/": 19,
      "0": 20,
      "1": 21,
      "2": 22,
      "3": 23,
      "4": 24,
      "5": 25,
      "6": 26,
      "7": 27,
      "8": 28,
      "9": 29,
      ":": 30,
      ";": 31,
      "<": 32,
      "=": 33,
      ">": 34,
      "?": 35,
      "@": 36,
      "A": 37,
      "B": 38,
      "C": 39,
      "D": 40,
      "E": 41,
      "F": 42,
      "G": 43,
      "H": 44,
      "I": 45,
      "J": 46,
      "K": 47,
      "L": 48,
      "M": 49,
      "N": 50,
      "O": 51,
      "P": 52,
      "Q": 53,
      "R": 54,
      "S": 55,
      "T": 56,
      "U": 57,
      "V": 58,
      "W": 59,
      "X": 60,
      "Y": 61,
      "Z": 62,
      "[": 63,
      "\\": 64,
      "]": 65,
      "^": 66,
      "_": 67,
      "`": 68,
      "a": 69,
      "b": 70,
      "c": 71,
      "d": 72,
      "e": 73,
      "f": 74,
      "g": 75,
      "h": 76,
      "i": 77,
      "j": 78,
      "k": 79,
      "l": 80,
      "m": 81,
      "n": 82,
      "o": 83,
      "p": 84,
      "q": 85,
      "r": 86,
      "s": 87,
      "t": 88,
      "u": 89,
      "v": 90,
      "w": 91,
      "x": 92,
      "y": 93,
      "z": 94,
      "{": 95,
      "|": 96,
      "}": 97,
      "~": 98,
      "": 99,
      "": 100,
      "": 101,
      "": 102,
      "": 103,
      "": 104,
      "": 105,
      "": 106,
      "": 107,
      "": 108,
      "": 109,
      "": 110,
      "": 111,
      "": 112,
      "": 113,
      "": 114,
      "": 115,
      "": 116,
      "": 117,
      "": 118,
      "": 119,
      "": 120,
      "": 121,
      "": 122,
      "": 123,
      "": 124,
      "": 125,
      "": 126,
      "": 127,
      "": 128,
      "": 129,
      "¡": 130,
      "¢": 131,
      "£": 132,
      "¤": 133,
      "¥": 134,
      "¦": 135,
      "§": 136,
      "¨": 137,
      "©": 138,
      "ª": 139,
      "«": 140,
      "¬": 141,
      "­": 142,
      "®": 143,
      "¯": 144,
      "°": 145,
      "±": 146,
      "²": 147,
      "³": 148,
      "´": 149,
      "µ": 150,
      "¶": 151,
      "·": 152,
      "¸": 153,
      "¹": 154,
      "»": 155,
      "¼": 156,
      "½": 157,
      "¾": 158,
      "¿": 159,
      "Â": 160,
      "Ã": 161,
      "Æ": 162,
      "Ê": 163,
      "Î": 164,
      "Ð": 165,
      "Ñ": 166,
      "Ò": 167,
      "à": 168,
      "â": 169,
      "ã": 170,
      "ä": 171,
      "å": 172,
      "ï": 173,
      "ð": 174,
      "–": 175,
      "—": 176,
      "’": 177,
      "“": 178,
      "”": 179,
      "…": 180,
      "❤": 181,
      "️": 182,
      "😇": 183,
      "re": 184,
      "on": 185,
      "in": 186,
      "th": 187,
      "er": 188,
      "at": 189,
      "or": 190,
      "an": 191,
      "es": 192,
      "ou": 193,
      "en": 194,
      "ion": 195,
      "the": 196,
      "st": 197,
      "ic": 198,
      "le": 199,
      "al": 200,
      "ing": 201,
      "to": 202,
      "se": 203,
      "ro": 204,
      "it": 205,
      "ed": 206,
      "ct": 207,
      "ent": 208,
      "ure": 209,
      "is": 210,
      "and": 211,
      "ation": 212,
      "lo": 213,
      "me": 214,
      "ar": 215,
      "our": 216,
      "ac": 217,
      "de": 218,
      "ag": 219,
      "zure": 220,
      "for": 221,
      "of": 222,
      "ce": 223,
      "Azure": 224,
      "et": 225,
      "ab": 226,
      "res": 227,
      "ig": 228,
      "ate": 229,
      "co": 230,
      "con": 231,
      "as": 232,
      "ame": 233,
      "pp": 234,
      "il": 235,
      "he": 236,
      "mp": 237,
      "age": 238,
      "ad": 239,
      "ol": 240,
      "te": 241,
      "erv": 242,
      "ri": 243,
      "pro": 244,
      "ch": 245,
      "ces": 246,
      "you": 247,
      "vi": 248,
      "ul": 249,
      "us": 250,
      "ers": 251,
      "wor": 252,
      "ment": 253,
      "nt": 254,
      "--": 255,
      "su": 256,
      "\":": 257,
      "ource": 258,
      "ex": 259,
      "work": 260,
      "qu": 261,
      "ve": 262,
      "rou": 263,
      "ity": 264,
      "your": 265,
      "pe": 266,
      "ne": 267,
      "pt": 268,
      "ith": 269,
      "tr": 270,
      "if": 271,
      "mo": 272,
      "un": 273,
      "dat": 274,
      "per": 275,
      "ur": 276,
      "can": 277,
      "app": 278,
      "ction": 279,
      "li": 280,
      "ly": 281,
      "ow": 282,
      "with": 283,
      "are": 284,
      "that": 285,
      "lic": 286,
      "id": 287,
      "ort": 288,
      "ut": 289,
      "name": 290,
      "est": 291,
      "able": 292,
      "ust": 293,
      "cre": 294,
      "ervic": 295,
      "be": 296,
      "net": 297,
      "roup": 298,
      "sc": 299,
      "low": 300,
      "ain": 301,
      "end": 302,
      "cess": 303,
      "str": 304,
      "ult": 305,
      "In": 306,
      "The": 307,
      "po": 308,
      "ption": 309,
      "iz": 310,
      "ies": 311,
      "form": 312,
      "use": 313,
      "ros": 314,
      "lect": 315,
      "cl": 316,
      "oft": 317,
      "\",": 318,
      "resource": 319,
      "Con": 320,
      "ase": 321,
      "com": 322,
      "ire": 323,
      "ke": 324,
      "ub": 325,
      "data": 326,
      "icros": 327,
      "art": 328,
      "icrosoft": 329,
      "00": 330,
      "cont": 331,
      "ount": 332,
      "ual": 333,
      "ter": 334,
      "ervice": 335,
      "ach": 336,
      "no": 337,
      "fig": 338,
      "Name": 339,
      "this": 340,
      "sig": 341,
      "plo": 342,
      "ver": 343,
      "all": 344,
      "lication": 345,
      "requ": 346,
      "Microsoft": 347,
      "Re": 348,
      "fi": 349,
      "ine": 350,
      "For": 351,
      "man": 352,
      "rom": 353,
      "am": 354,
      "up": 355,
      "mple": 356,
      "au": 357,
      "Se": 358,
      "ts": 359,
      "ay": 360,
      "rt": 361,
      "ack": 362,
      "count": 363,
      "ail": 364,
      "group": 365,
      "orage": 366,
      "St": 367,
      "out": 368,
      "ap": 369,
      "im": 370,
      "from": 371,
      "ploy": 372,
      "ste": 373,
      "sh": 374,
      "by": 375,
      "De": 376,
      "ance": 377,
      "ue": 378,
      "ault": 379,
      "fe": 380,
      "set": 381,
      "wh": 382,
      "sub": 383,
      "ty": 384,
      "om": 385,
      "so": 386,
      "Res": 387,
      "You": 388,
      "fol": 389,
      "ated": 390,
      "comm": 391,
      "App": 392,
      "av": 393,
      "rtual": 394,
      "ace": 395,
      "using": 396,
      "ang": 397,
      "add": 398,
      "config": 399,
      "pl": 400,
      "scri": 401,
      "Th": 402,
      "ew": 403,
      "log": 404,
      "sign": 405,
      "ps": 406,
      "ant": 407,
      "network": 408,
      "string": 409,
      "select": 410,
      "follow": 411,
      "cur": 412,
      "des": 413,
      "To": 414,
      "deploy": 415,
      "Id": 416,
      "ions": 417,
      "val": 418,
      "ess": 419,
      "ind": 420,
      "act": 421,
      "see": 422,
      "ect": 423,
      "VM": 424,
      "ist": 425,
      "itor": 426,
      "loc": 427,
      "application": 428,
      "more": 429,
      "ime": 430,
      "um": 431,
      "ources": 432,
      "port": 433,
      "ress": 434,
      "ht": 435,
      "int": 436,
      "sp": 437,
      "reg": 438,
      "following": 439,
      "der": 440,
      "ations": 441,
      "ip": 442,
      "conne": 443,
      "ens": 444,
      "ra": 445,
      "erver": 446,
      "service": 447,
      "create": 448,
      "If": 449,
      "we": 450,
      "bo": 451,
      "access": 452,
      "Ad": 453,
      "Co": 454,
      "scription": 455,
      "ting": 456,
      "def": 457,
      "20": 458,
      "red": 459,
      "formation": 460,
      "account": 461,
      "ive": 462,
      "ll": 463,
      "ample": 464,
      "Resource": 465,
      "provi": 466,
      "AP": 467,
      "one": 468,
      "Dat": 469,
      "inst": 470,
      "//": 471,
      "storage": 472,
      "key": 473,
      "Pro": 474,
      "load": 475,
      "Lo": 476,
      "file": 477,
      "Group": 478,
      "resources": 479,
      "do": 480,
      "ident": 481,
      "information": 482,
      "pri": 483,
      "dis": 484,
      "ID": 485,
      "pre": 486,
      "ial": 487,
      "ization": 488,
      "auth": 489,
      "ave": 490,
      "pport": 491,
      "virtual": 492,
      "az": 493,
      "ics": 494,
      "run": 495,
      "ther": 496,
      "onitor": 497,
      "ject": 498,
      "les": 499,
      "Ac": 500,
      "xx": 501,
      "aged": 502,
      "ersion": 503,
      "ks": 504,
      "azure": 505,
      "No": 506,
      "subscription": 507,
      "get": 508,
      "chang": 509,
      "olic": 510,
      "comp": 511,
      "ard": 512,
      "Man": 513,
      "user": 514,
      "ext": 515,
      "ition": 516,
      "This": 517,
      "type": 518,
      "uster": 519,
      "abil": 520,
      "par": 521,
      "ific": 522,
      "ho": 523,
      "sy": 524,
      "ustom": 525,
      "min": 526,
      "pec": 527,
      "new": 528,
      "ctor": 529,
      "abase": 530,
      "ma": 531,
      "IP": 532,
      "ron": 533,
      "En": 534,
      "support": 535,
      "Add": 536,
      "Ex": 537,
      "vent": 538,
      "page": 539,
      "ld": 540,
      "QL": 541,
      "Cre": 542,
      "----": 543,
      "Select": 544,
      "back": 545,
      "ill": 546,
      "ments": 547,
      "avail": 548,
      "example": 549,
      "curity": 550,
      "lient": 551,
      "SQL": 552,
      "contain": 553,
      "ob": 554,
      "view": 555,
      "ass": 556,
      "Service": 557,
      "stem": 558,
      "ctions": 559,
      "enc": 560,
      "bu": 561,
      "uration": 562,
      "put": 563,
      "Create": 564,
      "not": 565,
      "ari": 566,
      "my": 567,
      "mode": 568,
      "ervices": 569,
      "ize": 570,
      "but": 571,
      "ical": 572,
      "ite": 573,
      "spec": 574,
      "sto": 575,
      "cluster": 576,
      "ability": 577,
      "have": 578,
      "need": 579,
      "gr": 580,
      "way": 581,
      "Net": 582,
      "own": 583,
      "..": 584,
      "arch": 585,
      "af": 586,
      "Cont": 587,
      "try": 588,
      "RE": 589,
      "pr": 590,
      "enable": 591,
      "ert": 592,
      "custom": 593,
      "fere": 594,
      "ows": 595,
      "olicy": 596,
      "dire": 597,
      "when": 598,
      "Wh": 599,
      "agement": 600,
      "mis": 601,
      "ary": 602,
      "managed": 603,
      "aly": 604,
      "point": 605,
      "list": 606,
      "proper": 607,
      "oper": 608,
      "command": 609,
      "Use": 610,
      "version": 611,
      "ery": 612,
      "ast": 613,
      "time": 614,
      "ning": 615,
      "Ent": 616,
      "API": 617,
      "iv": 618,
      "pen": 619,
      "identity": 620,
      "oud": 621,
      "line": 622,
      "An": 623,
      "clu": 624,
      "space": 625,
      "achine": 626,
      "assign": 627,
      "ines": 628,
      "require": 629,
      "col": 630,
      "vate": 631,
      "ule": 632,
      "Set": 633,
      "pub": 634,
      "Ke": 635,
      "NA": 636,
      "other": 637,
      "read": 638,
      "ck": 639,
      "server": 640,
      "ify": 641,
      "default": 642,
      "model": 643,
      "request": 644,
      "lob": 645,
      "ese": 646,
      "Data": 647,
      "ich": 648,
      "setting": 649,
      "ge": 650,
      "portal": 651,
      "ir": 652,
      "ot": 653,
      "start": 654,
      "mpl": 655,
      "deployment": 656,
      "role": 657,
      "base": 658,
      "Key": 659,
      "Def": 660,
      "ful": 661,
      "Storage": 662,
      "database": 663,
      "ight": 664,
      "address": 665,
      "perform": 666,
      "icle": 667,
      "its": 668,
      "fic": 669,
      "Vi": 670,
      "fil": 671,
      "ans": 672,
      "od": 673,
      "},": 674,
      "ile": 675,
      "Au": 676,
      "Log": 677,
      ").": 678,
      "only": 679,
      "ild": 680,
      "Note": 681,
      "ties": 682,
      "Config": 683,
      "here": 684,
      "security": 685,
      "value": 686,
      "auto": 687,
      "ber": 688,
      "Cl": 689,
      "Access": 690,
      "date": 691,
      "system": 692,
      "mat": 693,
      "which": 694,
      "test": 695,
      "orization": 696,
      "ould": 697,
      "process": 698,
      "Monitor": 699,
      "ipe": 700,
      "Ty": 701,
      "ry": 702,
      "viron": 703,
      "Az": 704,
      "inclu": 705,
      "then": 706,
      "imp": 707,
      "10": 708,
      "nd": 709,
      "We": 710,
      "ates": 711,
      "gh": 712,
      "client": 713,
      "hel": 714,
      "nam": 715,
      "Server": 716,
      "ale": 717,
      "used": 718,
      "htt": 719,
      "On": 720,
      "host": 721,
      "ON": 722,
      "option": 723,
      "configuration": 724,
      "ory": 725,
      "ential": 726,
      "also": 727,
      "fun": 728,
      "ateway": 729,
      "indows": 730,
      "As": 731,
      "director": 732,
      ");": 733,
      "workload": 734,
      "configure": 735,
      "any": 736,
      "ener": 737,
      "Type": 738,
      "ST": 739,
      "region": 740,
      "ature": 741,
      "ear": 742,
      "web": 743,
      "parame": 744,
      "ute": 745,
      "ms": 746,
      "ser": 747,
      "Network": 748,
      "Application": 749,
      "query": 750,
      "ign": 751,
      "202": 752,
      "entic": 753,
      "cri": 754,
      "ER": 755,
      "ires": 756,
      "LI": 757,
      "ath": 758,
      "ret": 759,
      "When": 760,
      "istr": 761,
      "://": 762,
      "location": 763,
      "workspace": 764,
      "code": 765,
      "ib": 766,
      "ages": 767,
      "services": 768,
      "ResourceGroup": 769,
      "connect": 770,
      "lat": 771,
      "mult": 772,
      "igh": 773,
      "over": 774,
      "Sy": 775,
      "==": 776,
      "ous": 777,
      "how": 778,
      "vari": 779,
      "miss": 780,
      "requires": 781,
      "metr": 782,
      "01": 783,
      "private": 784,
      "fo": 785,
      "will": 786,
      "public": 787,
      "available": 788,
      "commend": 789,
      "rough": 790,
      "about": 791,
      "based": 792,
      "environ": 793,
      "cond": 794,
      "connection": 795,
      "ities": 796,
      "anc": 797,
      "0000": 798,
      "part": 799,
      "container": 800,
      "ors": 801,
      "ribut": 802,
      "each": 803,
      "inu": 804,
      "Get": 805,
      "pos": 806,
      "properties": 807,
      "ose": 808,
      "has": 809,
      "dele": 810,
      "pon": 811,
      "ables": 812,
      "where": 813,
      "ound": 814,
      "project": 815,
      "tern": 816,
      "ters": 817,
      "sigh": 818,
      "sights": 819,
      "alyt": 820,
      "Virtual": 821,
      "policy": 822,
      "uct": 823,
      "allow": 824,
      "AS": 825,
      "through": 826,
      "authorization": 827,
      "xt": 828,
      "dif": 829,
      "vis": 830,
      "such": 831,
      "ice": 832,
      "AI": 833,
      "must": 834,
      "hell": 835,
      "),": 836,
      "flow": 837,
      "rol": 838,
      "ger": 839,
      "Entra": 840,
      "monitor": 841,
      "ower": 842,
      "cor": 843,
      "endpoint": 844,
      "di": 845,
      "very": 846,
      "pend": 847,
      "pipe": 848,
      "CLI": 849,
      "UR": 850,
      "steps": 851,
      "instance": 852,
      "Conne": 853,
      "valu": 854,
      "vel": 855,
      "ide": 856,
      "11": 857,
      "templ": 858,
      "performance": 859,
      "management": 860,
      "article": 861,
      "pool": 862,
      "these": 863,
      "DB": 864,
      "rep": 865,
      "ME": 866,
      "alytics": 867,
      "ension": 868,
      "ten": 869,
      "feature": 870,
      "=\"": 871,
      "lim": 872,
      "ish": 873,
      "settings": 874,
      "os": 875,
      "same": 876,
      "ernet": 877,
      "cu": 878,
      "text": 879,
      "table": 880,
      "ency": 881,
      "heck": 882,
      "https": 883,
      "Shell": 884,
      "ating": 885,
      "authentic": 886,
      "andard": 887,
      "plan": 888,
      "Tr": 889,
      "recommend": 890,
      "store": 891,
      "created": 892,
      "should": 893,
      "scale": 894,
      "ution": 895,
      "exist": 896,
      "changing": 897,
      "ink": 898,
      "Open": 899,
      "tas": 900,
      "Pre": 901,
      "itional": 902,
      "true": 903,
      "num": 904,
      "ken": 905,
      "event": 906,
      "mess": 907,
      "want": 908,
      "provid": 909,
      "might": 910,
      "differe": 911,
      "help": 912,
      "agent": 913,
      "function": 914,
      "directories": 915,
      "main": 916,
      "Windows": 917,
      "ules": 918,
      "cloud": 919,
      "Power": 920,
      "VMs": 921,
      "Vault": 922,
      "job": 923,
      "content": 924,
      "action": 925,
      "Do": 926,
      "cap": 927,
      "ake": 928,
      "ier": 929,
      "Contain": 930,
      "(\"": 931,
      "machine": 932,
      "sing": 933,
      "NS": 934,
      "Web": 935,
      "cert": 936,
      "permiss": 937,
      "availability": 938,
      "iple": 939,
      "xxxx": 940,
      "ubernet": 941,
      "ubernetes": 942,
      "ically": 943,
      "source": 944,
      "ef": 945,
      "comple": 946,
      "respon": 947,
      "cons": 948,
      "cho": 949,
      "gu": 950,
      "build": 951,
      "enabled": 952,
      "ca": 953,
      "level": 954,
      "ases": 955,
      "depend": 956,
      "high": 957,
      "arget": 958,
      "enter": 959,
      "control": 960,
      "subnet": 961,
      "defin": 962,
      "environment": 963,
      "ized": 964,
      "org": 965,
      "Dis": 966,
      "cost": 967,
      "Hub": 968,
      "dev": 969,
      "into": 970,
      "different": 971,
      "Inst": 972,
      "ivity": 973,
      "omain": 974,
      "led": 975,
      "specific": 976,
      "--------": 977,
      "parameters": 978,
      "affic": 979,
      "traffic": 980,
      "tegr": 981,
      "KS": 982,
      "el": 983,
      "install": 984,
      "Al": 985,
      "atch": 986,
      "result": 987,
      "ding": 988,
      "inter": 989,
      "NAME": 990,
      "multiple": 991,
      "ied": 992,
      "path": 993,
      "node": 994,
      "12": 995,
      "Sub": 996,
      "Account": 997,
      "stat": 998,
      "sol": 999,
      "disk": 1000,
      "fore": 1001,
      "rent": 1002,
      "vault": 1003,
      "bet": 1004,
      "feren": 1005,
      "achines": 1006,
      "import": 1007,
      "trans": 1008,
      "go": 1009,
      "metrics": 1010,
      "Auth": 1011,
      "sco": 1012,
      "ible": 1013,
      "number": 1014,
      "Time": 1015,
      "Insights": 1016,
      "template": 1017,
      "Event": 1018,
      "secre": 1019,
      "RO": 1020,
      "ted": 1021,
      "applications": 1022,
      "AKS": 1023,
      "output": 1024,
      "PowerShell": 1025,
      "Un": 1026,
      "files": 1027,
      "ator": 1028,
      "Ident": 1029,
      "Te": 1030,
      "('": 1031,
      "ok": 1032,
      "subscriptions": 1033,
      "ec": 1034,
      "It": 1035,
      "smo": 1036,
      "prod": 1037,
      "ET": 1038,
      "ails": 1039,
      "update": 1040,
      "image": 1041,
      "py": 1042,
      "descri": 1043,
      "api": 1044,
      "amp": 1045,
      "TI": 1046,
      "fer": 1047,
      "ross": 1048,
      "assigned": 1049,
      "inux": 1050,
      "uses": 1051,
      "down": 1052,
      "inc": 1053,
      "ai": 1054,
      "rite": 1055,
      "like": 1056,
      "Lear": 1057,
      "supported": 1058,
      "gener": 1059,
      "target": 1060,
      "Loc": 1061,
      "authentication": 1062,
      "lear": 1063,
      "pes": 1064,
      "appro": 1065,
      "Analytics": 1066,
      "Kubernetes": 1067,
      "admin": 1068,
      "smos": 1069,
      "logs": 1070,
      "provides": 1071,
      "Deploy": 1072,
      "lish": 1073,
      "Dev": 1074,
      "igr": 1075,
      "Database": 1076,
      "Container": 1077,
      "det": 1078,
      "does": 1079,
      "AC": 1080,
      "local": 1081,
      "ateg": 1082,
      "aa": 1083,
      "ence": 1084,
      "que": 1085,
      "under": 1086,
      "SS": 1087,
      "ints": 1088,
      "top": 1089,
      "ree": 1090,
      "pipeline": 1091,
      "pass": 1092,
      "blob": 1093,
      "ared": 1094,
      "**": 1095,
      "err": 1096,
      "wall": 1097,
      "existing": 1098,
      "extension": 1099,
      "Version": 1100,
      "irewall": 1101,
      "users": 1102,
      "ric": 1103,
      "ware": 1104,
      "resourceGroup": 1105,
      "fir": 1106,
      "Requ": 1107,
      "nap": 1108,
      "vm": 1109,
      "¯": 1110,
      "alth": 1111,
      "Comp": 1112,
      "velo": 1113,
      "IN": 1114,
      "],": 1115,
      "gateway": 1116,
      "ager": 1117,
      "nc": 1118,
      "Wor": 1119,
      "itect": 1120,
      "SAP": 1121,
      "word": 1122,
      "check": 1123,
      "permissions": 1124,
      "js": 1125,
      "_name": 1126,
      "names": 1127,
      "within": 1128,
      "change": 1129,
      "Management": 1130,
      "br": 1131,
      "ku": 1132,
      "16": 1133,
      "size": 1134,
      "Machine": 1135,
      "open": 1136,
      "urn": 1137,
      "()": 1138,
      "automat": 1139,
      "values": 1140,
      "ider": 1141,
      "points": 1142,
      "organ": 1143,
      "Client": 1144,
      "ances": 1145,
      "New": 1146,
      "peri": 1147,
      "Or": 1148,
      "provide": 1149,
      "Linux": 1150,
      "groups": 1151,
      "Ops": 1152,
      "Ar": 1153,
      "lines": 1154,
      "Up": 1155,
      "second": 1156,
      "backup": 1157,
      "vision": 1158,
      "don": 1159,
      "domain": 1160,
      "search": 1161,
      "current": 1162,
      "certific": 1163,
      "Managed": 1164,
      "bound": 1165,
      "EN": 1166,
      "cred": 1167,
      "Policy": 1168,
      "fix": 1169,
      "trig": 1170,
      "ick": 1171,
      "ween": 1172,
      "place": 1173,
      "Cloud": 1174,
      "ql": 1175,
      "ml": 1176,
      "ference": 1177,
      "operations": 1178,
      "between": 1179,
      "')": 1180,
      "single": 1181,
      "Val": 1182,
      "Reg": 1183,
      "rule": 1184,
      "22": 1185,
      "metry": 1186,
      "mem": 1187,
      "tool": 1188,
      "E_": 1189,
      "delete": 1190,
      "lemetry": 1191,
      "Bu": 1192,
      "row": 1193,
      "running": 1194,
      "Run": 1195,
      "Services": 1196,
      "Assign": 1197,
      "Sh": 1198,
      "token": 1199,
      "TP": 1200,
      "max": 1201,
      "Fe": 1202,
      "object": 1203,
      "Ch": 1204,
      "integr": 1205,
      "aces": 1206,
      "ified": 1207,
      "operation": 1208,
      "struct": 1209,
      "cument": 1210,
      "rules": 1211,
      "rele": 1212,
      "unt": 1213,
      "ost": 1214,
      "pack": 1215,
      "vol": 1216,
      "Work": 1217,
      "19": 1218,
      "cure": 1219,
      "lection": 1220,
      "less": 1221,
      "compute": 1222,
      "Security": 1223,
      "mary": 1224,
      "providers": 1225,
      "required": 1226,
      "tw": 1227,
      "move": 1228,
      "encry": 1229,
      "zone": 1230,
      "design": 1231,
      "HT": 1232,
      "mod": 1233,
      "limit": 1234,
      "alse": 1235,
      "dex": 1236,
      "sum": 1237,
      "script": 1238,
      "sure": 1239,
      "alanc": 1240,
      "positor": 1241,
      "Imp": 1242,
      "\"<": 1243,
      "uring": 1244,
      "Standard": 1245,
      "Manager": 1246,
      "tag": 1247,
      "ull": 1248,
      "Git": 1249,
      "DNS": 1250,
      "User": 1251,
      "rit": 1252,
      "lock": 1253,
      "Default": 1254,
      "em": 1255,
      "ds": 1256,
      "enari": 1257,
      "serv": 1258,
      "Cosmos": 1259,
      "ange": 1260,
      "Qu": 1261,
      "manage": 1262,
      "DevOps": 1263,
      "changes": 1264,
      "incip": 1265,
      "incipal": 1266,
      "their": 1267,
      "across": 1268,
      "Enable": 1269,
      "init": 1270,
      "pace": 1271,
      "sche": 1272,
      "Gateway": 1273,
      "tt": 1274,
      "ResourceGroupName": 1275,
      "cted": 1276,
      "covery": 1277,
      "\")": 1278,
      "Fil": 1279,
      "state": 1280,
      "AT": 1281,
      "thod": 1282,
      "ache": 1283,
      "options": 1284,
      "ensure": 1285,
      "Des": 1286,
      "How": 1287,
      "AM": 1288,
      "task": 1289,
      "Next": 1290,
      "25": 1291,
      "exp": 1292,
      "structure": 1293,
      "Str": 1294,
      "Art": 1295,
      "them": 1296,
      "credential": 1297,
      "monitoring": 1298,
      "message": 1299,
      "ci": 1300,
      "requests": 1301,
      "met": 1302,
      "two": 1303,
      "architect": 1304,
      "theAzure": 1305,
      "Pri": 1306,
      "</": 1307,
      "updat": 1308,
      "tenant": 1309,
      "US": 1310,
      "cause": 1311,
      "Per": 1312,
      "/<": 1313,
      "prote": 1314,
      "play": 1315,
      "ptim": 1316,
      "olicies": 1317,
      "mpt": 1318,
      "machines": 1319,
      "scope": 1320,
      "doesn": 1321,
      "scenari": 1322,
      "ternal": 1323,
      "details": 1324,
      "Additional": 1325,
      "microsoft": 1326,
      "ark": 1327,
      "att": 1328,
      "json": 1329,
      "imple": 1330,
      "false": 1331,
      "include": 1332,
      "Setting": 1333,
      "Option": 1334,
      "workloads": 1335,
      "keys": 1336,
      "than": 1337,
      "My": 1338,
      "section": 1339,
      "onent": 1340,
      "ative": 1341,
      "plat": 1342,
      "agno": 1343,
      "first": 1344,
      "ded": 1345,
      "organization": 1346,
      "platform": 1347,
      "System": 1348,
      "they": 1349,
      "automatically": 1350,
      "repositor": 1351,
      "gra": 1352,
      "link": 1353,
      "ash": 1354,
      "ired": 1355,
      "issu": 1356,
      "ices": 1357,
      "vers": 1358,
      "',": 1359,
      "ong": 1360,
      "develo": 1361,
      "db": 1362,
      "File": 1363,
      "fail": 1364,
      "requirements": 1365,
      "some": 1366,
      "End": 1367,
      "ee": 1368,
      "scal": 1369,
      "ront": 1370,
      "ata": 1371,
      "types": 1372,
      "Mo": 1373,
      "tier": 1374,
      "Address": 1375,
      "AD": 1376,
      "String": 1377,
      "CP": 1378,
      "before": 1379,
      "Su": 1380,
      "He": 1381,
      "HTTP": 1382,
      ">\"": 1383,
      "istry": 1384,
      "features": 1385,
      "migr": 1386,
      "provision": 1387,
      "return": 1388,
      "instances": 1389,
      "mises": 1390,
      "##": 1391,
      "Identity": 1392,
      "isn": 1393,
      "contribut": 1394,
      "Feed": 1395,
      "ava": 1396,
      "premises": 1397,
      "team": 1398,
      "Enter": 1399,
      "imum": 1400,
      "TION": 1401,
      "adata": 1402,
      "valid": 1403,
      "abric": 1404,
      "ole": 1405,
      "ak": 1406,
      "hub": 1407,
      "30": 1408,
      "agnost": 1409,
      "AZ": 1410,
      "Auto": 1411,
      "Configuration": 1412,
      "15": 1413,
      "make": 1414,
      "EC": 1415,
      "architecture": 1416,
      "ns": 1417,
      "bb": 1418,
      "eld": 1419,
      "$(": 1420,
      "property": 1421,
      "status": 1422,
      "_id": 1423,
      "ium": 1424,
      "sed": 1425,
      "variables": 1426,
      "Sc": 1427,
      "health": 1428,
      "fect": 1429,
      "AR": 1430,
      "learn": 1431,
      "pers": 1432,
      "write": 1433,
      "index": 1434,
      "Met": 1435,
      "component": 1436,
      "there": 1437,
      "ally": 1438,
      "secure": 1439,
      "Configure": 1440,
      "tes": 1441,
      "specify": 1442,
      "ervi": 1443,
      "{\"": 1444,
      "both": 1445,
      "Start": 1446,
      "Ag": 1447,
      "Int": 1448,
      "grade": 1449,
      "signing": 1450,
      "ones": 1451,
      "Back": 1452,
      "cent": 1453,
      "class": 1454,
      "acity": 1455,
      "ender": 1456,
      "gin": 1457,
      "password": 1458,
      "solution": 1459,
      "Af": 1460,
      "erview": 1461,
      "certificate": 1462,
      "workflow": 1463,
      "document": 1464,
      "amples": 1465,
      "Pub": 1466,
      "Blob": 1467,
      "ifact": 1468,
      "verview": 1469,
      "method": 1470,
      "inor": 1471,
      "ream": 1472,
      "configured": 1473,
      "policies": 1474,
      "Count": 1475,
      "eries": 1476,
      "buil": 1477,
      "Read": 1478,
      "ched": 1479,
      "Be": 1480,
      "rid": 1481,
      "secret": 1482,
      "uction": 1483,
      "ner": 1484,
      "rel": 1485,
      "consider": 1486,
      "primary": 1487,
      "soci": 1488,
      "SO": 1489,
      "und": 1490,
      "helpful": 1491,
      "Exp": 1492,
      "\"/": 1493,
      "deployed": 1494,
      "These": 1495,
      "iness": 1496,
      "_NAME": 1497,
      "alled": 1498,
      "arge": 1499,
      "\"[": 1500,
      "response": 1501,
      "step": 1502,
      "17": 1503,
      "Test": 1504,
      "....": 1505,
      "after": 1506,
      "Fun": 1507,
      "Act": 1508,
      "usters": 1509,
      "active": 1510,
      "endpoints": 1511,
      "dio": 1512,
      "input": 1513,
      "ailo": 1514,
      "04": 1515,
      "18": 1516,
      "show": 1517,
      "OS": 1518,
      "shows": 1519,
      "After": 1520,
      "choose": 1521,
      "Import": 1522,
      "With": 1523,
      "regions": 1524,
      "actions": 1525,
      "alancer": 1526,
      "exec": 1527,
      "Rou": 1528,
      "By": 1529,
      "latest": 1530,
      "Us": 1531,
      "may": 1532,
      "principal": 1533,
      "trychanging": 1534,
      "trysigning": 1535,
      "inorchanging": 1536,
      "Value": 1537,
      "parameter": 1538,
      "analy": 1539,
      "error": 1540,
      "cept": 1541,
      "board": 1542,
      "Oper": 1543,
      "Disk": 1544,
      "Article": 1545,
      "URL": 1546,
      "contributors": 1547,
      "Route": 1548,
      "Feedback": 1549,
      "liance": 1550,
      "Files": 1551,
      "SD": 1552,
      "rg": 1553,
      "24": 1554,
      "variable": 1555,
      "apply": 1556,
      "op": 1557,
      "schema": 1558,
      "call": 1559,
      "results": 1560,
      "abases": 1561,
      "OR": 1562,
      "ailover": 1563,
      "Custom": 1564,
      "NET": 1565,
      "format": 1566,
      "Proper": 1567,
      "cs": 1568,
      "Location": 1569,
      "hy": 1570,
      "display": 1571,
      "export": 1572,
      "optim": 1573,
      "Cred": 1574,
      "inf": 1575,
      "erts": 1576,
      "hand": 1577,
      "...": 1578,
      "var": 1579,
      "Dire": 1580,
      "Was": 1581,
      "ready": 1582,
      "ume": 1583,
      "trigger": 1584,
      "Request": 1585,
      "Update": 1586,
      "share": 1587,
      "fs": 1588,
      "without": 1589,
      "ination": 1590,
      "14": 1591,
      "now": 1592,
      "encryption": 1593,
      "repository": 1594,
      "bus": 1595,
      "udio": 1596,
      "Connection": 1597,
      "stand": 1598,
      "dist": 1599,
      "sess": 1600,
      "capacity": 1601,
      "Gener": 1602,
      "field": 1603,
      "associ": 1604,
      "Instance": 1605,
      "ev": 1606,
      "accounts": 1607,
      "filter": 1608,
      "mium": 1609,
      "alert": 1610,
      "dit": 1611,
      "implement": 1612,
      "day": 1613,
      "See": 1614,
      "OP": 1615,
      "Connect": 1616,
      "Credential": 1617,
      "description": 1618,
      "attern": 1619,
      "lf": 1620,
      "core": 1621,
      "sql": 1622,
      "Build": 1623,
      "rastructure": 1624,
      "Defender": 1625,
      "colum": 1626,
      "kube": 1627,
      "metadata": 1628,
      "hol": 1629,
      "events": 1630,
      "supports": 1631,
      "abilities": 1632,
      "CS": 1633,
      "including": 1634,
      "URE": 1635,
      "ict": 1636,
      "Cluster": 1637,
      ">/": 1638,
      "face": 1639,
      "vious": 1640,
      "queries": 1641,
      "release": 1642,
      "namespace": 1643,
      "roll": 1644,
      "v2": 1645,
      "direct": 1646,
      "preview": 1647,
      "oc": 1648,
      "Learn": 1649,
      "ling": 1650,
      "03": 1651,
      "pan": 1652,
      "complete": 1653,
      "suc": 1654,
      "replic": 1655,
      "eng": 1656,
      "incre": 1657,
      "ily": 1658,
      "thon": 1659,
      "ient": 1660,
      "review": 1661,
      "head": 1662,
      "AZURE": 1663,
      "100": 1664,
      "ular": 1665,
      "off": 1666,
      "series": 1667,
      "Provi": 1668,
      "Subscription": 1669,
      "limits": 1670,
      "HA": 1671,
      "context": 1672,
      "Private": 1673,
      "box": 1674,
      "dy": 1675,
      "Par": 1676,
      "ensions": 1677,
      "firewall": 1678,
      "sample": 1679,
      "GitHub": 1680,
      "Settings": 1681,
      "UP": 1682,
      "ither": 1683,
      "apps": 1684,
      "SDK": 1685,
      "provider": 1686,
      "/{": 1687,
      "ced": 1688,
      "All": 1689,
      "rame": 1690,
      "tocol": 1691,
      "databases": 1692,
      "io": 1693,
      "built": 1694,
      "reference": 1695,
      "Compute": 1696,
      "asic": 1697,
      "logic": 1698,
      "Col": 1699,
      "${": 1700,
      "disks": 1701,
      "pattern": 1702,
      "metric": 1703,
      "stored": 1704,
      "customer": 1705,
      "&&": 1706,
      "toso": 1707,
      "models": 1708,
      "roles": 1709,
      "AN": 1710,
      "2024": 1711,
      "collection": 1712,
      "ins": 1713,
      "iled": 1714,
      "windows": 1715,
      "Sign": 1716,
      "\":\"": 1717,
      "Path": 1718,
      "during": 1719,
      "64": 1720,
      "Arc": 1721,
      "lay": 1722,
      "let": 1723,
      "usage": 1724,
      "Learning": 1725,
      "Java": 1726,
      "previous": 1727,
      "tasks": 1728,
      "memory": 1729,
      "networks": 1730,
      "ep": 1731,
      "PO": 1732,
      "OpenAI": 1733,
      "publish": 1734,
      "either": 1735,
      "standard": 1736,
      "aks": 1737,
      "33": 1738,
      "ites": 1739,
      "State": 1740,
      "directory": 1741,
      "Express": 1742,
      "Av": 1743,
      "connections": 1744,
      "send": 1745,
      "AZURE_": 1746,
      "What": 1747,
      "infrastructure": 1748,
      "find": 1749,
      "resent": 1750,
      "ever": 1751,
      "ailed": 1752,
      "mon": 1753,
      "From": 1754,
      "experi": 1755,
      "servers": 1756,
      "itions": 1757,
      "aph": 1758,
      "ait": 1759,
      "fully": 1760,
      "zones": 1761,
      "was": 1762,
      "allows": 1763,
      "costs": 1764,
      "contains": 1765,
      "myResourceGroup": 1766,
      "Code": 1767,
      "Your": 1768,
      "tags": 1769,
      "tal": 1770,
      "tools": 1771,
      "develop": 1772,
      "Host": 1773,
      "ffic": 1774,
      "Not": 1775,
      "utes": 1776,
      "SC": 1777,
      "Director": 1778,
      "men": 1779,
      "44": 1780,
      "http": 1781,
      "production": 1782,
      "definition": 1783,
      "Stat": 1784,
      "EL": 1785,
      "napse": 1786,
      "ention": 1787,
      "Im": 1788,
      "sible": 1789,
      "Ext": 1790,
      "Mess": 1791,
      "disable": 1792,
      "recor": 1793,
      "needs": 1794,
      "ft": 1795,
      "dest": 1796,
      "defined": 1797,
      "clusters": 1798,
      "aging": 1799,
      "deployments": 1800,
      "again": 1801,
      "char": 1802,
      "nodes": 1803,
      "integration": 1804,
      "Com": 1805,
      "scenarios": 1806,
      "Firewall": 1807,
      "untime": 1808,
      "specified": 1809,
      "Important": 1810,
      "redund": 1811,
      "Studio": 1812,
      "addresses": 1813,
      "package": 1814,
      "napsh": 1815,
      "Pl": 1816,
      "vnet": 1817,
      "Vis": 1818,
      "because": 1819,
      "08": 1820,
      "menu": 1821,
      "components": 1822,
      "There": 1823,
      "ually": 1824,
      "plore": 1825,
      "failure": 1826,
      "Telemetry": 1827,
      "appli": 1828,
      "failover": 1829,
      "cc": 1830,
      "Directory": 1831,
      "XX": 1832,
      "36": 1833,
      "Po": 1834,
      "take": 1835,
      "REST": 1836,
      "rece": 1837,
      "Apps": 1838,
      "login": 1839,
      "ickstart": 1840,
      "ways": 1841,
      "alerts": 1842,
      "reserv": 1843,
      "List": 1844,
      "Admin": 1845,
      "ax": 1846,
      "Endpoint": 1847,
      "device": 1848,
      "09": 1849,
      "ging": 1850,
      "ersh": 1851,
      "recovery": 1852,
      "bool": 1853,
      "Out": 1854,
      "sap": 1855,
      "anch": 1856,
      "Dele": 1857,
      "env": 1858,
      "Search": 1859,
      "throughput": 1860,
      "Review": 1861,
      "urations": 1862,
      "resourceGroups": 1863,
      "credentials": 1864,
      "separ": 1865,
      "aren": 1866,
      "spaces": 1867,
      "queue": 1868,
      "unic": 1869,
      "Ow": 1870,
      "ategory": 1871,
      "capabilities": 1872,
      "self": 1873,
      "ExpressRoute": 1874,
      "dete": 1875,
      "cry": 1876,
      "Shared": 1877,
      "Agent": 1878,
      "Pipe": 1879,
      "secrets": 1880,
      "Under": 1881,
      "sudo": 1882,
      "med": 1883,
      "copy": 1884,
      "named": 1885,
      "volume": 1886,
      "most": 1887,
      "ral": 1888,
      "Install": 1889,
      "ben": 1890,
      "ility": 1891,
      "via": 1892,
      "Synapse": 1893,
      "business": 1894,
      "creating": 1895,
      "IC": 1896,
      "stead": 1897,
      "Link": 1898,
      "ership": 1899,
      "remo": 1900,
      "aining": 1901,
      "====": 1902,
      "order": 1903,
      "LS": 1904,
      "collect": 1905,
      "approach": 1906,
      "fin": 1907,
      "Role": 1908,
      "ering": 1909,
      "insights": 1910,
      "upgrade": 1911,
      "ved": 1912,
      "tra": 1913,
      "chedule": 1914,
      "restore": 1915,
      "Port": 1916,
      "includes": 1917,
      "ification": 1918,
      "pload": 1919,
      "Py": 1920,
      "istrator": 1921,
      "associated": 1922,
      "stru": 1923,
      "another": 1924,
      "rm": 1925,
      "best": 1926,
      "gre": 1927,
      "null": 1928,
      "GRO": 1929,
      "pipelines": 1930,
      "messages": 1931,
      "MS": 1932,
      "large": 1933,
      "ble": 1934,
      "GROUP": 1935,
      ">.": 1936,
      "RS": 1937,
      "();": 1938,
      "stream": 1939,
      "pur": 1940,
      "Premium": 1941,
      "route": 1942,
      "URC": 1943,
      "Load": 1944,
      "IT": 1945,
      "commands": 1946,
      "ML": 1947,
      "sets": 1948,
      "ceed": 1949,
      "mand": 1950,
      "SOURC": 1951,
      "updates": 1952,
      "identities": 1953,
      "abricks": 1954,
      "crit": 1955,
      "full": 1956,
      "outbound": 1957,
      "Red": 1958,
      "match": 1959,
      "non": 1960,
      "lick": 1961,
      "hether": 1962,
      "mit": 1963,
      "redu": 1964,
      "Bus": 1965,
      "jobs": 1966,
      "describ": 1967,
      "report": 1968,
      "Assigned": 1969,
      "secondary": 1970,
      "processing": 1971,
      "shared": 1972,
      "sim": 1973,
      "Authorization": 1974,
      "pract": 1975,
      "partition": 1976,
      "cker": 1977,
      "ler": 1978,
      "artifact": 1979,
      "assignment": 1980,
      "session": 1981,
      "prise": 1982,
      "oid": 1983,
      "angu": 1984,
      "item": 1985,
      "many": 1986,
      "utor": 1987,
      "already": 1988,
      "02": 1989,
      "ring": 1990,
      "ana": 1991,
      "site": 1992,
      "connectivity": 1993,
      "ique": 1994,
      "hosted": 1995,
      "Properties": 1996,
      "selected": 1997,
      "period": 1998,
      "Python": 1999,
      "success": 2000,
      "!=": 2001,
      "JS": 2002,
      "Content": 2003,
      "folder": 2004,
      "tim": 2005,
      "last": 2006,
      "tab": 2007,
      "Support": 2008,
      "ask": 2009,
      "Deployment": 2010,
      "illing": 2011,
      "extend": 2012,
      "AL": 2013,
      "images": 2014,
      "issues": 2015,
      "sis": 2016,
      "avig": 2017,
      "diagnost": 2018,
      "case": 2019,
      "Front": 2020,
      "ctl": 2021,
      "autom": 2022,
      "sync": 2023,
      "):": 2024,
      "guid": 2025,
      "SM": 2026,
      "containers": 2027,
      "cle": 2028,
      "temp": 2029,
      "backend": 2030,
      "encies": 2031,
      "RESOURC": 2032,
      "tables": 2033,
      "xy": 2034,
      "Profile": 2035,
      "print": 2036,
      "common": 2037,
      "activity": 2038,
      "og": 2039,
      "aster": 2040,
      "icated": 2041,
      "izes": 2042,
      "mar": 2043,
      "strateg": 2044,
      "branch": 2045,
      "Avail": 2046,
      "wait": 2047,
      "brid": 2048,
      "ref": 2049,
      "utorial": 2050,
      "external": 2051,
      "cache": 2052,
      "Query": 2053,
      "acle": 2054,
      "retri": 2055,
      "block": 2056,
      "Image": 2057,
      "product": 2058,
      ".\"": 2059,
      "}/": 2060,
      "soft": 2061,
      "continu": 2062,
      "Ob": 2063,
      "2025": 2064,
      "effect": 2065,
      "next": 2066,
      "FS": 2067,
      "abel": 2068,
      "workspaces": 2069,
      "added": 2070,
      "13": 2071,
      "lex": 2072,
      "JSON": 2073,
      "replication": 2074,
      "Authentic": 2075,
      "registry": 2076,
      "root": 2077,
      "Cho": 2078,
      "download": 2079,
      "runs": 2080,
      "Secre": 2081,
      "installed": 2082,
      "compliance": 2083,
      "environments": 2084,
      "whether": 2085,
      "impro": 2086,
      "----------------": 2087,
      "eve": 2088,
      "ramework": 2089,
      "itive": 2090,
      "View": 2091,
      "Mode": 2092,
      "\\\"": 2093,
      "range": 2094,
      "const": 2095,
      "pa": 2096,
      "dri": 2097,
      "PN": 2098,
      "utions": 2099,
      "communic": 2100,
      "author": 2101,
      "ational": 2102,
      "Io": 2103,
      "connected": 2104,
      "pric": 2105,
      "Cert": 2106,
      "Visual": 2107,
      "migration": 2108,
      "directly": 2109,
      "anced": 2110,
      "Write": 2111,
      "Message": 2112,
      "geo": 2113,
      "book": 2114,
      "Le": 2115,
      "pricing": 2116,
      "Databricks": 2117,
      "vid": 2118,
      "plorer": 2119,
      "deter": 2120,
      "ashboard": 2121,
      "resource_": 2122,
      "Functions": 2123,
      "appear": 2124,
      "lobal": 2125,
      "ror": 2126,
      "remove": 2127,
      "So": 2128,
      "medi": 2129,
      "ResourceId": 2130,
      "overn": 2131,
      "tain": 2132,
      "protocol": 2133,
      "raform": 2134,
      "versions": 2135,
      "ality": 2136,
      "Node": 2137,
      "unique": 2138,
      "those": 2139,
      "Resources": 2140,
      "Go": 2141,
      "necess": 2142,
      "scaling": 2143,
      "while": 2144,
      "development": 2145,
      "Backup": 2146,
      "00000000": 2147,
      "IoT": 2148,
      "sever": 2149,
      "Public": 2150,
      "consist": 2151,
      "Er": 2152,
      "1_": 2153,
      "every": 2154,
      "latency": 2155,
      "started": 2156,
      "')]": 2157,
      "Ite": 2158,
      "VPN": 2159,
      "ingest": 2160,
      "igin": 2161,
      "Check": 2162,
      "kind": 2163,
      "indow": 2164,
      "/*": 2165,
      "pect": 2166,
      "53": 2167,
      "cript": 2168,
      "Htt": 2169,
      "Source": 2170,
      "dd": 2171,
      "SU": 2172,
      "minutes": 2173,
      "ibility": 2174,
      "analytics": 2175,
      "Status": 2176,
      "KE": 2177,
      "CI": 2178,
      "Scale": 2179,
      "ERS": 2180,
      "column": 2181,
      "ings": 2182,
      "Cons": 2183,
      "000": 2184,
      "sole": 2185,
      "mak": 2186,
      "LO": 2187,
      "snapsh": 2188,
      "VNet": 2189,
      "retention": 2190,
      "SK": 2191,
      "However": 2192,
      "ktop": 2193,
      "ception": 2194,
      "additional": 2195,
      "Ret": 2196,
      "NW": 2197,
      "ilar": 2198,
      "Save": 2199,
      "Spec": 2200,
      "just": 2201,
      "****": 2202,
      "CPU": 2203,
      "leg": 2204,
      "maximum": 2205,
      "recommendations": 2206,
      "Allow": 2207,
      "libr": 2208,
      "hour": 2209,
      "separate": 2210,
      "hold": 2211,
      "AG": 2212,
      "storageAccount": 2213,
      "06": 2214,
      "Machines": 2215,
      "instru": 2216,
      "ators": 2217,
      "LE": 2218,
      "distribut": 2219,
      "resol": 2220,
      "balancer": 2221,
      "systems": 2222,
      "Ip": 2223,
      "Bo": 2224,
      "recommended": 2225,
      "Subnet": 2226,
      "fam": 2227,
      "functions": 2228,
      "anguage": 2229,
      "Encry": 2230,
      "AML": 2231,
      "kubectl": 2232,
      "comput": 2233,
      "Each": 2234,
      "long": 2235,
      "2019": 2236,
      "Copy": 2237,
      "fl": 2238,
      "4e": 2239,
      "benef": 2240,
      "Local": 2241,
      "ister": 2242,
      "items": 2243,
      "right": 2244,
      "necessary": 2245,
      "Logs": 2246,
      "Delete": 2247,
      "documentation": 2248,
      "pane": 2249,
      "DE": 2250,
      "TLS": 2251,
      "NAT": 2252,
      "post": 2253,
      "ached": 2254,
      "23": 2255,
      "Table": 2256,
      "module": 2257,
      "Http": 2258,
      "99": 2259,
      "bles": 2260,
      "track": 2261,
      "Rule": 2262,
      "brow": 2263,
      "cp": 2264,
      "possible": 2265,
      "destination": 2266,
      "Actions": 2267,
      "Choose": 2268,
      "configurations": 2269,
      "dro": 2270,
      "erval": 2271,
      "UT": 2272,
      "fact": 2273,
      "Object": 2274,
      "reli": 2275,
      "NT": 2276,
      "Provider": 2277,
      "left": 2278,
      "vant": 2279,
      "provided": 2280,
      "Ap": 2281,
      "AB": 2282,
      "Own": 2283,
      "pools": 2284,
      "beh": 2285,
      "seeAzure": 2286,
      "templates": 2287,
      "overview": 2288,
      "routing": 2289,
      "Core": 2290,
      "HANA": 2291,
      "sm": 2292,
      "bin": 2293,
      "sa": 2294,
      "Error": 2295,
      "what": 2296,
      "window": 2297,
      "critical": 2298,
      "currently": 2299,
      "greg": 2300,
      "three": 2301,
      "ls": 2302,
      "ants": 2303,
      "APIs": 2304,
      "prefix": 2305,
      "tore": 2306,
      "roubles": 2307,
      "roublesho": 2308,
      "Size": 2309,
      "Gr": 2310,
      "ush": 2311,
      "gram": 2312,
      "md": 2313,
      "Hy": 2314,
      "inv": 2315,
      "tech": 2316,
      "solutions": 2317,
      "Oracle": 2318,
      "origin": 2319,
      "needed": 2320,
      "eas": 2321,
      "Trans": 2322,
      "Script": 2323,
      "conf": 2324,
      "upload": 2325,
      "ze": 2326,
      "Pool": 2327,
      "later": 2328,
      "CON": 2329,
      "Det": 2330,
      "deleted": 2331,
      "note": 2332,
      "Job": 2333,
      "connector": 2334,
      "profile": 2335,
      "against": 2336,
      "55": 2337,
      "free": 2338,
      "sw": 2339,
      "look": 2340,
      "Migr": 2341,
      "creates": 2342,
      "related": 2343,
      "pring": 2344,
      "Availability": 2345,
      "theaz": 2346,
      "Ownership": 2347,
      "Environ": 2348,
      "increase": 2349,
      "Prefix": 2350,
      "indi": 2351,
      "evalu": 2352,
      "runtime": 2353,
      "contoso": 2354,
      "cover": 2355,
      "would": 2356,
      "Registry": 2357,
      "Overview": 2358,
      "Token": 2359,
      "even": 2360,
      "interface": 2361,
      "total": 2362,
      "oks": 2363,
      "icep": 2364,
      "lease": 2365,
      "gress": 2366,
      "////": 2367,
      "instead": 2368,
      "grant": 2369,
      "resource_group": 2370,
      "individ": 2371,
      "customers": 2372,
      "dependencies": 2373,
      "WebApp": 2374,
      "Active": 2375,
      "Required": 2376,
      "priate": 2377,
      "ti": 2378,
      "HD": 2379,
      "pot": 2380,
      "restr": 2381,
      "prompt": 2382,
      "mine": 2383,
      "Door": 2384,
      "front": 2385,
      "appropriate": 2386,
      "BAC": 2387,
      "Gu": 2388,
      "Spring": 2389,
      "rics": 2390,
      "Secret": 2391,
      "extensions": 2392,
      "dashboard": 2393,
      "stab": 2394,
      "Optional": 2395,
      "Example": 2396,
      "protection": 2397,
      "Manage": 2398,
      "been": 2399,
      "map": 2400,
      "Explorer": 2401,
      "practices": 2402,
      "hard": 2403,
      "graph": 2404,
      "ss": 2405,
      "ECT": 2406,
      "v1": 2407,
      "Consider": 2408,
      "category": 2409,
      "Project": 2410,
      "gn": 2411,
      "schedule": 2412,
      "enables": 2413,
      "CA": 2414,
      "cases": 2415,
      "YAML": 2416,
      "logy": 2417,
      "SP": 2418,
      "static": 2419,
      "azurerm": 2420,
      "Pr": 2421,
      "ili": 2422,
      "reat": 2423,
      "::": 2424,
      "Sco": 2425,
      "TO": 2426,
      "identify": 2427,
      "ams": 2428,
      "High": 2429,
      "05": 2430,
      "rest": 2431,
      "Prote": 2432,
      "ph": 2433,
      "Pipelines": 2434,
      "": 2435,
      "similar": 2436,
      "experience": 2437,
      "giv": 2438,
      "vanced": 2439,
      "online": 2440,
      "Sync": 2441,
      "strategy": 2442,
      "Templ": 2443,
      "examples": 2444,
      "meet": 2445,
      "telemetry": 2446,
      "analysis": 2447,
      "inue": 2448,
      "nch": 2449,
      "Logic": 2450,
      "))": 2451,
      "Metrics": 2452,
      "Respon": 2453,
      "click": 2454,
      "represent": 2455,
      "batch": 2456,
      "Change": 2457,
      "Basic": 2458,
      "Workspace": 2459,
      "ancy": 2460,
      "chat": 2461,
      "kens": 2462,
      "Inter": 2463,
      "Defin": 2464,
      "quot": 2465,
      "Di": 2466,
      "azd": 2467,
      "Environment": 2468,
      "].": 2469,
      "NetApp": 2470,
      "2022": 2471,
      "bug": 2472,
      "rect": 2473,
      "\");": 2474,
      "define": 2475,
      "offer": 2476,
      "days": 2477,
      "testing": 2478,
      "xxxxxxxx": 2479,
      "proxy": 2480,
      "Process": 2481,
      "avigate": 2482,
      "dedicated": 2483,
      "ves": 2484,
      "guidance": 2485,
      "GP": 2486,
      "locations": 2487,
      "v4": 2488,
      "creation": 2489,
      "cat": 2490,
      "prior": 2491,
      "prevent": 2492,
      "billing": 2493,
      "Mod": 2494,
      "nchron": 2495,
      "mb": 2496,
      "Descri": 2497,
      "mption": 2498,
      "training": 2499,
      "Uri": 2500,
      "Health": 2501,
      "guide": 2502,
      "APP": 2503,
      "writ": 2504,
      "ris": 2505,
      "........": 2506,
      "park": 2507,
      "occur": 2508,
      "lot": 2509,
      "27": 2510,
      "scenario": 2511,
      "sku": 2512,
      "dec": 2513,
      "26": 2514,
      ">\",": 2515,
      "summar": 2516,
      "encrypt": 2517,
      "sk": 2518,
      "Recommend": 2519,
      "Then": 2520,
      "2023": 2521,
      "individual": 2522,
      "Hubs": 2523,
      "RBAC": 2524,
      "apiVersion": 2525,
      "bers": 2526,
      "SUB": 2527,
      "Contribut": 2528,
      "pected": 2529,
      "internal": 2530,
      "url": 2531,
      "helps": 2532,
      "ff": 2533,
      "ifies": 2534,
      "requis": 2535,
      "echo": 2536,
      "correct": 2537,
      "save": 2538,
      "being": 2539,
      "ward": 2540,
      "ently": 2541,
      "Enabled": 2542,
      "Perform": 2543,
      "den": 2544,
      "provisioned": 2545,
      "200": 2546,
      "Ter": 2547,
      "initial": 2548,
      "RESOURCE_": 2549,
      "Description": 2550,
      "45": 2551,
      "username": 2552,
      "Desktop": 2553,
      "21": 2554,
      "ares": 2555,
      "sens": 2556,
      "Parame": 2557,
      "ason": 2558,
      "updated": 2559,
      "1111": 2560,
      "mark": 2561,
      "sumption": 2562,
      "keep": 2563,
      "label": 2564,
      "}}": 2565,
      "Spark": 2566,
      "ribu": 2567,
      "_ID": 2568,
      "feed": 2569,
      "mount": 2570,
      "logging": 2571,
      "ribute": 2572,
      "roller": 2573,
      "Post": 2574,
      "processes": 2575,
      "07": 2576,
      "Make": 2577,
      "Tag": 2578,
      "tion": 2579,
      "tun": 2580,
      "improve": 2581,
      "typ": 2582,
      "understand": 2583,
      "effic": 2584,
      "ton": 2585,
      "cr": 2586,
      "permission": 2587,
      "Is": 2588,
      "tokens": 2589,
      "plane": 2590,
      "azurerm_": 2591,
      "Nam": 2592,
      "Context": 2593,
      "sources": 2594,
      "pod": 2595,
      "dependency": 2596,
      "Fol": 2597,
      "jo": 2598,
      "isol": 2599,
      "Plan": 2600,
      "Balancer": 2601,
      "side": 2602,
      "higher": 2603,
      "Encryption": 2604,
      "various": 2605,
      "Item": 2606,
      "cd": 2607,
      "Kind": 2608,
      "Extension": 2609,
      "umes": 2610,
      "Pass": 2611,
      "gers": 2612,
      "util": 2613,
      "lexible": 2614,
      "Using": 2615,
      "Tra": 2616,
      "KeyVault": 2617,
      "amount": 2618,
      "Output": 2619,
      "nel": 2620,
      "Publish": 2621,
      "proble": 2622,
      "could": 2623,
      "Can": 2624,
      "\",\"": 2625,
      "agents": 2626,
      "ingress": 2627,
      "Result": 2628,
      "wid": 2629,
      "Definition": 2630,
      "Autom": 2631,
      "ARM": 2632,
      "Only": 2633,
      "least": 2634,
      "Integr": 2635,
      "internet": 2636,
      "allowed": 2637,
      "chart": 2638,
      "Diagnost": 2639,
      "ia": 2640,
      "NI": 2641,
      "datase": 2642,
      "At": 2643,
      "diagnostic": 2644,
      "Ver": 2645,
      "audit": 2646,
      "inputs": 2647,
      "Once": 2648,
      "2020": 2649,
      "ASCS": 2650,
      "protect": 2651,
      "Template": 2652,
      "chan": 2653,
      "assess": 2654,
      "generate": 2655,
      "requisites": 2656,
      "tenance": 2657,
      "charact": 2658,
      "resourceGroupName": 2659,
      "grad": 2660,
      "Response": 2661,
      "CD": 2662,
      "istration": 2663,
      "email": 2664,
      "SCR": 2665,
      "few": 2666,
      "Other": 2667,
      "iB": 2668,
      "multi": 2669,
      "browser": 2670,
      "shown": 2671,
      "body": 2672,
      "tutorial": 2673,
      "Lake": 2674,
      "Cost": 2675,
      "Control": 2676,
      "namic": 2677,
      "engine": 2678,
      "spring": 2679,
      "avi": 2680,
      "anges": 2681,
      "ough": 2682,
      "language": 2683,
      "important": 2684,
      "izing": 2685,
      "izations": 2686,
      "interval": 2687,
      "SEL": 2688,
      "Ensure": 2689,
      "Region": 2690,
      "ues": 2691,
      "sight": 2692,
      "software": 2693,
      "quickstart": 2694,
      "Authentication": 2695,
      "Recovery": 2696,
      "VirtualNetwork": 2697,
      "Base": 2698,
      "SCRIP": 2699,
      "real": 2700,
      "drop": 2701,
      "SELECT": 2702,
      "reduce": 2703,
      "land": 2704,
      "complex": 2705,
      "backups": 2706,
      "certificates": 2707,
      "spark": 2708,
      "avoid": 2709,
      "Monitoring": 2710,
      "KEY": 2711,
      "lif": 2712,
      "Docker": 2713,
      "person": 2714,
      "validation": 2715,
      "Part": 2716,
      "Options": 2717,
      "aim": 2718,
      "ww": 2719,
      "@{": 2720,
      "still": 2721,
      "SKU": 2722,
      "ATE": 2723,
      "provisioning": 2724,
      "aries": 2725,
      "pay": 2726,
      "patch": 2727,
      "GB": 2728,
      "_P": 2729,
      "Collection": 2730,
      "Buil": 2731,
      "force": 2732,
      "SCRIPTION": 2733,
      "ches": 2734,
      "aaS": 2735,
      "learning": 2736,
      "pose": 2737,
      "operational": 2738,
      "ircu": 2739,
      "impact": 2740,
      "Contributor": 2741,
      "nown": 2742,
      "deli": 2743,
      "Function": 2744,
      "acy": 2745,
      "cmd": 2746,
      "Arch": 2747,
      "networking": 2748,
      "expected": 2749,
      "Fact": 2750,
      "aaaa": 2751,
      "vector": 2752,
      "redundancy": 2753,
      "Sql": 2754,
      "devices": 2755,
      "emp": 2756,
      "administrator": 2757,
      "_D": 2758,
      "ise": 2759,
      "several": 2760,
      "SUBSCRIPTION": 2761,
      ":\\": 2762,
      "handle": 2763,
      "Traffic": 2764,
      "modify": 2765,
      "RESOURCE_GROUP": 2766,
      "_S": 2767,
      "Reference": 2768,
      "=<": 2769,
      "')]\",": 2770,
      "Hel": 2771,
      "below": 2772,
      "hys": 2773,
      "Down": 2774,
      "maintain": 2775,
      "ports": 2776,
      "arent": 2777,
      "FI": 2778,
      "cessed": 2779,
      "subscriptionId": 2780,
      "28": 2781,
      "DefaultAzure": 2782,
      "rate": 2783,
      "OpenTelemetry": 2784,
      "Certific": 2785,
      "Ed": 2786,
      "rik": 2787,
      "WS": 2788,
      "Enterprise": 2789,
      "si": 2790,
      "benefits": 2791,
      "sent": 2792,
      "trust": 2793,
      "Bicep": 2794,
      "Some": 2795,
      "DefaultAzureCredential": 2796,
      "Develo": 2797,
      "indic": 2798,
      "().": 2799,
      "onger": 2800,
      "8s": 2801,
      "Zone": 2802,
      "alle": 2803,
      "lower": 2804,
      "ugin": 2805,
      "0a": 2806,
      "SAS": 2807,
      "abrik": 2808,
      "POST": 2809,
      "SSD": 2810,
      "disaster": 2811,
      "firm": 2812,
      "central": 2813,
      "reshold": 2814,
      "demand": 2815,
      "transaction": 2816,
      "well": 2817,
      "ving": 2818,
      "verify": 2819,
      "visual": 2820,
      "OT": 2821,
      "applied": 2822,
      "Names": 2823,
      "affect": 2824,
      "deploying": 2825,
      "remain": 2826,
      "summarize": 2827,
      "ifier": 2828,
      "[\"": 2829,
      "record": 2830,
      "Generated": 2831,
      "Fabric": 2832,
      "global": 2833,
      "execution": 2834,
      "scan": 2835,
      "generated": 2836,
      "family": 2837,
      "88": 2838,
      "ries": 2839,
      "ensive": 2840,
      "determine": 2841,
      "meas": 2842,
      "LT": 2843,
      "Action": 2844,
      "mapp": 2845,
      "hosts": 2846,
      "longer": 2847,
      "sys": 2848,
      "edit": 2849,
      "peering": 2850,
      "subnets": 2851,
      "ROM": 2852,
      "round": 2853,
      "Found": 2854,
      "ES": 2855,
      "objects": 2856,
      "aggreg": 2857,
      "Replace": 2858,
      "minimum": 2859,
      "abrikam": 2860,
      "manually": 2861,
      "repo": 2862,
      "always": 2863,
      "enant": 2864,
      "customized": 2865,
      "volumes": 2866,
      "remote": 2867,
      "Remove": 2868,
      "Activity": 2869,
      "sizes": 2870,
      "triggers": 2871,
      "small": 2872,
      "($": 2873,
      "continue": 2874,
      "ycle": 2875,
      "timeout": 2876,
      "stage": 2877,
      "HE": 2878,
      "redundant": 2879,
      "50": 2880,
      "Date": 2881,
      "avior": 2882,
      "Here": 2883,
      "Pack": 2884,
      "bind": 2885,
      "CO": 2886,
      "maintenance": 2887,
      "fields": 2888,
      "FROM": 2889,
      "cuments": 2890,
      "header": 2891,
      "Download": 2892,
      "found": 2893,
      "basic": 2894,
      "Domain": 2895,
      "replace": 2896,
      "consum": 2897,
      "attack": 2898,
      "alog": 2899,
      "abling": 2900,
      "pull": 2901,
      "aven": 2902,
      "eeee": 2903,
      "als": 2904,
      ">'": 2905,
      "mentation": 2906,
      "seconds": 2907,
      "methods": 2908,
      "known": 2909,
      "mal": 2910,
      "bl": 2911,
      "spo": 2912,
      "finish": 2913,
      "ENT": 2914,
      "Factory": 2915,
      "errors": 2916,
      "Num": 2917,
      "Tip": 2918,
      "tests": 2919,
      "instructions": 2920,
      "Document": 2921,
      "respons": 2922,
      "measure": 2923,
      "estab": 2924,
      "cal": 2925,
      "32": 2926,
      "ets": 2927,
      "cul": 2928,
      "celer": 2929,
      "They": 2930,
      "bar": 2931,
      "stores": 2932,
      "ered": 2933,
      "ren": 2934,
      "east": 2935,
      "button": 2936,
      "accept": 2937,
      "boot": 2938,
      "UI": 2939,
      "ru": 2940,
      "ven": 2941,
      "join": 2942,
      "git": 2943,
      "'<": 2944,
      "located": 2945,
      "termin": 2946,
      "continuous": 2947,
      "installation": 2948,
      "Supported": 2949,
      "du": 2950,
      "general": 2951,
      "snapshot": 2952,
      "}\"": 2953,
      "flows": 2954,
      "hysical": 2955,
      "nic": 2956,
      "GET": 2957,
      "reservation": 2958,
      "USER": 2959,
      "MB": 2960,
      "TimeGenerated": 2961,
      "restrict": 2962,
      "Identities": 2963,
      "condition": 2964,
      "register": 2965,
      "pods": 2966,
      "layer": 2967,
      "operating": 2968,
      "allel": 2969,
      "keyvault": 2970,
      "receive": 2971,
      "offers": 2972,
      "commit": 2973,
      "ingestion": 2974,
      "Max": 2975,
      "Password": 2976,
      "ged": 2977,
      "frequ": 2978,
      "selectCreate": 2979,
      "Mem": 2980,
      "ives": 2981,
      "sequ": 2982,
      "patterns": 2983,
      "govern": 2984,
      "thes": 2985,
      "shares": 2986,
      "||": 2987,
      "etc": 2988,
      "hist": 2989,
      "STR": 2990,
      "255": 2991,
      "Batch": 2992,
      "RG": 2993,
      "Fi": 2994,
      "teams": 2995,
      "Performance": 2996,
      "who": 2997,
      "df": 2998,
      "linked": 2999,
      "console": 3000,
      "mediate": 3001,
      "desired": 3002,
      "tak": 3003,
      "vert": 3004,
      "demo": 3005,
      "describes": 3006,
      "Class": 3007,
      "done": 3008,
      "apt": 3009,
      "Trig": 3010,
      "80": 3011,
      "Min": 3012,
      "Quickstart": 3013,
      "called": 3014,
      "SSH": 3015,
      "cosmos": 3016,
      "Stream": 3017,
      "push": 3018,
      "ING": 3019,
      "gest": 3020,
      "reason": 3021,
      "quick": 3022,
      "Mult": 3023,
      "Org": 3024,
      "failed": 3025,
      "OPS": 3026,
      "29": 3027,
      "estamp": 3028,
      "works": 3029,
      "selecting": 3030,
      "astion": 3031,
      "ssh": 3032,
      "described": 3033,
      "=$(": 3034,
      "Level": 3035,
      "begin": 3036,
      "potential": 3037,
      "k8s": 3038,
      "Principal": 3039,
      "mer": 3040,
      "ifications": 3041,
      "48": 3042,
      "iste": 3043,
      "aching": 3044,
      "Que": 3045,
      "greSQL": 3046,
      "TY": 3047,
      "END": 3048,
      "Comple": 3049,
      "itch": 3050,
      "Sent": 3051,
      "PostgreSQL": 3052,
      "pm": 3053,
      "ray": 3054,
      "analyze": 3055,
      "istered": 3056,
      "outs": 3057,
      "issue": 3058,
      "Protection": 3059,
      "asy": 3060,
      "\"]": 3061,
      "fana": 3062,
      "given": 3063,
      "entire": 3064,
      "kubernetes": 3065,
      "changed": 3066,
      "AF": 3067,
      "oring": 3068,
      "documents": 3069,
      "clude": 3070,
      "Cur": 3071,
      "inbound": 3072,
      "until": 3073,
      "controls": 3074,
      "olean": 3075,
      "Framework": 3076,
      "tiers": 3077,
      "MA": 3078,
      "quest": 3079,
      "reliability": 3080,
      "ense": 3081,
      "applies": 3082,
      "andom": 3083,
      "Gen": 3084,
      "lated": 3085,
      "========": 3086,
      "ithub": 3087,
      "Insight": 3088,
      "\"\"": 3089,
      "Analy": 3090,
      "clients": 3091,
      "sites": 3092,
      "userAssigned": 3093,
      "Operational": 3094,
      "locally": 3095,
      "times": 3096,
      "Cache": 3097,
      "behavior": 3098,
      "IOPS": 3099,
      "github": 3100,
      "clo": 3101,
      "Cent": 3102,
      "Async": 3103,
      "resh": 3104,
      "outputs": 3105,
      "ram": 3106,
      "functionality": 3107,
      "promp": 3108,
      "month": 3109,
      "ircuit": 3110,
      "NV": 3111,
      "Users": 3112,
      "ERV": 3113,
      "tract": 3114,
      "Contoso": 3115,
      "hardware": 3116,
      "Number": 3117,
      "assist": 3118,
      "Architect": 3119,
      "Me": 3120,
      "regional": 3121,
      "INT": 3122,
      "extra": 3123,
      "activ": 3124,
      "initi": 3125,
      "eastus": 3126,
      "Organ": 3127,
      "considerations": 3128,
      "lin": 3129,
      "communication": 3130,
      "java": 3131,
      "limited": 3132,
      "Of": 3133,
      "ENTI": 3134,
      "width": 3135,
      "ENA": 3136,
      "await": 3137,
      "openai": 3138,
      "ength": 3139,
      "\";": 3140,
      "bbbb": 3141,
      "Administrator": 3142,
      "detect": 3143,
      "Text": 3144,
      "####": 3145,
      "Groups": 3146,
      "depends": 3147,
      "Lim": 3148,
      "mas": 3149,
      "rl": 3150,
      "come": 3151,
      "*.": 3152,
      "columns": 3153,
      "appears": 3154,
      "library": 3155,
      "DR": 3156,
      "abo": 3157,
      "Pur": 3158,
      "LL": 3159,
      "span": 3160,
      "stop": 3161,
      "restart": 3162,
      "working": 3163,
      "successfully": 3164,
      "inel": 3165,
      "Prod": 3166,
      "failures": 3167,
      "\"{": 3168,
      "vo": 3169,
      "records": 3170,
      "packages": 3171,
      "achi": 3172,
      "logical": 3173,
      "effective": 3174,
      "v3": 3175,
      "landing": 3176,
      "RU": 3177,
      "arm": 3178,
      "tsv": 3179,
      "67": 3180,
      "controller": 3181,
      "automatic": 3182,
      "minim": 3183,
      "2021": 3184,
      "present": 3185,
      "Design": 3186,
      "threat": 3187,
      "vileg": 3188,
      "dynamic": 3189,
      "authenticate": 3190,
      "EX": 3191,
      "resourceId": 3192,
      "Store": 3193,
      "ceeded": 3194,
      "Information": 3195,
      "Containers": 3196,
      "800": 3197,
      "chestr": 3198,
      "beat": 3199,
      "allery": 3200,
      "balanc": 3201,
      "Mon": 3202,
      "Follow": 3203,
      "fine": 3204,
      "IS": 3205,
      "correspon": 3206,
      "hours": 3207,
      "\"$": 3208,
      "program": 3209,
      "routes": 3210,
      "ferred": 3211,
      "native": 3212,
      "['": 3213,
      "implementation": 3214,
      "Hybrid": 3215,
      "Current": 3216,
      "---": 3217,
      "Remo": 3218,
      "tell": 3219,
      "Migrate": 3220,
      "Sentinel": 3221,
      "Secure": 3222,
      "4e4e": 3223,
      "plit": 3224,
      "boolean": 3225,
      "contact": 3226,
      "risk": 3227,
      "sav": 3228,
      "blobs": 3229,
      "URI": 3230,
      "astic": 3231,
      "OK": 3232,
      "validate": 3233,
      "adding": 3234,
      "NFS": 3235,
      "tostring": 3236,
      "Prerequisites": 3237,
      "know": 3238,
      "XXXX": 3239,
      "setup": 3240,
      "books": 3241,
      "virtualMachines": 3242,
      "ED": 3243,
      "framework": 3244,
      "CH": 3245,
      "units": 3246,
      "above": 3247,
      "Att": 3248,
      "aml": 3249,
      "DP": 3250,
      "Terraform": 3251,
      "BI": 3252,
      "efficient": 3253,
      "assignments": 3254,
      "True": 3255,
      "2222": 3256,
      "bre": 3257,
      "Artifact": 3258,
      "initions": 3259,
      "Center": 3260,
      "ince": 3261,
      "licit": 3262,
      "che": 3263,
      "designed": 3264,
      "physical": 3265,
      "Definitions": 3266,
      "troublesho": 3267,
      "andwidth": 3268,
      "da": 3269,
      "member": 3270,
      "Queue": 3271,
      "techno": 3272,
      "enterprise": 3273,
      "NSG": 3274,
      "\".": 3275,
      "ots": 3276,
      "ributes": 3277,
      "HDInsight": 3278,
      "Site": 3279,
      "zip": 3280,
      "Trigger": 3281,
      "synchron": 3282,
      "artbeat": 3283,
      "Disable": 3284,
      "often": 3285,
      "Related": 3286,
      "workflows": 3287,
      "Url": 3288,
      "cell": 3289,
      "v6": 3290,
      "Verify": 3291,
      "Scope": 3292,
      "FA": 3293,
      "retry": 3294,
      "Graph": 3295,
      "Certificate": 3296,
      "TCP": 3297,
      "migrate": 3298,
      "Started": 3299,
      "Task": 3300,
      "xml": 3301,
      "Accounts": 3302,
      "establish": 3303,
      "included": 3304,
      "47": 3305,
      "domains": 3306,
      "'.": 3307,
      "cks": 3308,
      "listed": 3309,
      "Init": 3310,
      "relevant": 3311,
      "WAN": 3312,
      "Exec": 3313,
      "2018": 3314,
      "Optim": 3315,
      "\">": 3316,
      "partic": 3317,
      "istrators": 3318,
      "world": 3319,
      "etime": 3320,
      "spoke": 3321,
      "[]": 3322,
      "Exception": 3323,
      "persist": 3324,
      "ta": 3325,
      "exception": 3326,
      "diag": 3327,
      "parallel": 3328,
      "lists": 3329,
      "baseline": 3330,
      "Central": 3331,
      "projects": 3332,
      "quota": 3333,
      "protected": 3334,
      "calcul": 3335,
      "CRE": 3336,
      "gets": 3337,
      "Upgrade": 3338,
      "verage": 3339,
      "typically": 3340,
      "webApp": 3341,
      "distributed": 3342,
      "express": 3343,
      "Before": 3344,
      "probe": 3345,
      "dk": 3346,
      "made": 3347,
      "detailed": 3348,
      "takes": 3349,
      "Ge": 3350,
      "plugin": 3351,
      "priority": 3352,
      "One": 3353,
      "cedure": 3354,
      "conditions": 3355,
      "retrieve": 3356,
      "Depend": 3357,
      "Model": 3358,
      "managing": 3359,
      "Index": 3360,
      "Tool": 3361,
      "Networking": 3362,
      "optimize": 3363,
      "disabled": 3364,
      "East": 3365,
      "NIC": 3366,
      "optional": 3367,
      "displayName": 3368,
      "Edit": 3369,
      "ained": 3370,
      "Operation": 3371,
      "://<": 3372,
      "hybrid": 3373,
      "WebAppKind": 3374,
      "77": 3375,
      "means": 3376,
      "lying": 3377,
      "myVM": 3378,
      "ipp": 3379,
      "PAT": 3380,
      "Suc": 3381,
      "registered": 3382,
      "definitions": 3383,
      "classic": 3384,
      "Metric": 3385,
      "eder": 3386,
      "arning": 3387,
      "123": 3388,
      "DC": 3389,
      "Second": 3390,
      "duration": 3391,
      "[],": 3392,
      "random": 3393,
      "ouse": 3394,
      "calls": 3395,
      "ele": 3396,
      "VMware": 3397,
      "bytes": 3398,
      "schemas": 3399,
      "replica": 3400,
      "cross": 3401,
      "ended": 3402,
      "webapp": 3403,
      "scripts": 3404,
      "Backend": 3405,
      "automated": 3406,
      "mission": 3407,
      "Rules": 3408,
      "ensures": 3409,
      "authorized": 3410,
      "GiB": 3411,
      "HSM": 3412,
      "Trust": 3413,
      "equ": 3414,
      "};": 3415,
      "ulner": 3416,
      "cogn": 3417,
      "60": 3418,
      "percent": 3419,
      "usto": 3420,
      "Automation": 3421,
      "__": 3422,
      "AzureMonitor": 3423,
      "oting": 3424,
      "SMB": 3425,
      "Apache": 3426,
      "card": 3427,
      "ived": 3428,
      "Bastion": 3429,
      "lb": 3430,
      "Specify": 3431,
      "ories": 3432,
      "Define": 3433,
      "='": 3434,
      "tenants": 3435,
      "Property": 3436,
      "ster": 3437,
      "Share": 3438,
      "makes": 3439,
      "thing": 3440,
      "computer": 3441,
      "WOR": 3442,
      "paces": 3443,
      "olution": 3444,
      "userAssignedIdentities": 3445,
      "repositories": 3446,
      "NIST": 3447,
      "stack": 3448,
      "resili": 3449,
      "depending": 3450,
      "Filter": 3451,
      "lets": 3452,
      "raw": 3453,
      "Yes": 3454,
      "Any": 3455,
      "choice": 3456,
      "won": 3457,
      "}]": 3458,
      "icon": 3459,
      "YO": 3460,
      "uri": 3461,
      "ecycle": 3462,
      "Track": 3463,
      "35": 3464,
      "_H": 3465,
      "hosting": 3466,
      "encrypted": 3467,
      "Mark": 3468,
      "trace": 3469,
      "were": 3470,
      "Stack": 3471,
      ">,": 3472,
      "2016": 3473,
      "certain": 3474,
      "Valid": 3475,
      "MySQL": 3476,
      "ground": 3477,
      "urther": 3478,
      "1b": 3479,
      "66": 3480,
      "libraries": 3481,
      "ranges": 3482,
      "info": 3483,
      "Provision": 3484,
      "ginx": 3485,
      "wise": 3486,
      "sec": 3487,
      "rows": 3488,
      "manual": 3489,
      "Edge": 3490,
      "Namespace": 3491,
      "faces": 3492,
      "annot": 3493,
      "cing": 3494,
      "enh": 3495,
      "Understand": 3496,
      "bed": 3497,
      "Reader": 3498,
      "forward": 3499,
      "ApplicationInsights": 3500,
      "fails": 3501,
      "Organization": 3502,
      "Rep": 3503,
      "spe": 3504,
      "Events": 3505,
      "365": 3506,
      "_NW": 3507,
      "Vari": 3508,
      "Method": 3509,
      "pi": 3510,
      "Govern": 3511,
      "master": 3512,
      "Advanced": 3513,
      "sensitive": 3514,
      "nginx": 3515,
      "ntax": 3516,
      "automation": 3517,
      "Limit": 3518,
      "3d": 3519,
      "unit": 3520,
      "expand": 3521,
      "POINT": 3522,
      "DS": 3523,
      "usr": 3524,
      "recommendation": 3525,
      "2c": 3526,
      "configuring": 3527,
      "outside": 3528,
      "dim": 3529,
      "=>": 3530,
      "Plat": 3531,
      "West": 3532,
      "tered": 3533,
      "dataset": 3534,
      "navigate": 3535,
      "icles": 3536,
      "clean": 3537,
      "Package": 3538,
      "relation": 3539,
      "FO": 3540,
      "ders": 3541,
      "targets": 3542,
      "_client": 3543,
      "bot": 3544,
      "tuning": 3545,
      "IG": 3546,
      "happ": 3547,
      "yaml": 3548,
      "replicas": 3549,
      "samples": 3550,
      "Redis": 3551,
      "Diagnostics": 3552,
      "ION": 3553,
      "addition": 3554,
      "IpAddress": 3555,
      "checks": 3556,
      "lead": 3557,
      "coming": 3558,
      "Feature": 3559,
      "virtualNetwork": 3560,
      "CE": 3561,
      "particular": 3562,
      "rott": 3563,
      "acenter": 3564,
      "Grid": 3565,
      "Map": 3566,
      "ternative": 3567,
      "StorageAccount": 3568,
      "governance": 3569,
      "returns": 3570,
      "diagram": 3571,
      "docker": 3572,
      "IR": 3573,
      "plans": 3574,
      "ResourceType": 3575,
      "98": 3576,
      "Runtime": 3577,
      "detection": 3578,
      "ManagedIdentity": 3579,
      "bit": 3580,
      "hello": 3581,
      "simpl": 3582,
      "Ste": 3583,
      "_s": 3584,
      "LA": 3585,
      "Builder": 3586,
      "comb": 3587,
      "hook": 3588,
      "31": 3589,
      "********": 3590,
      "frontend": 3591,
      "articles": 3592,
      "']": 3593,
      ")]": 3594,
      "arg": 3595,
      "pred": 3596,
      "": 3597,
      "debug": 3598,
      "Customer": 3599,
      "\\\\": 3600,
      "bandwidth": 3601,
      "Pers": 3602,
      "isolation": 3603,
      "Fl": 3604,
      "west": 3605,
      "dependent": 3606,
      "ASS": 3607,
      "npm": 3608,
      "comes": 3609,
      "parent": 3610,
      "constr": 3611,
      "characters": 3612,
      "////////": 3613,
      "nfs": 3614,
      "artifacts": 3615,
      "edge": 3616,
      "rc": 3617,
      "mechan": 3618,
      "previously": 3619,
      "None": 3620,
      "concept": 3621,
      "compat": 3622,
      "capt": 3623,
      "caching": 3624,
      "Export": 3625,
      "YOUR": 3626,
      "/>": 3627,
      "sur": 3628,
      "due": 3629,
      "ENDPOINT": 3630,
      "Now": 3631,
      "heartbeat": 3632,
      "decis": 3633,
      "});": 3634,
      "ited": 3635,
      "creen": 3636,
      "mac": 3637,
      "procedure": 3638,
      "claim": 3639,
      "switch": 3640,
      "advant": 3641,
      "lier": 3642,
      "registration": 3643,
      "AzVM": 3644,
      "Recommendation": 3645,
      "ater": 3646,
      "Protocol": 3647,
      "Target": 3648,
      "threshold": 3649,
      "Command": 3650,
      "modules": 3651,
      "LRS": 3652,
      "returned": 3653,
      "tf": 3654,
      "Impact": 3655,
      "worker": 3656,
      "power": 3657,
      "dot": 3658,
      "highly": 3659,
      "ASP": 3660,
      "assessment": 3661,
      "fac": 3662,
      "Platform": 3663,
      "aving": 3664,
      "mechanis": 3665,
      "upgrad": 3666,
      "Clusters": 3667,
      "resourcegroups": 3668,
      "once": 3669,
      "dir": 3670,
      "diagnostics": 3671,
      "referen": 3672,
      "tellig": 3673,
      "paths": 3674,
      "ety": 3675,
      "Fir": 3676,
      "publisher": 3677,
      "V2": 3678,
      "IM": 3679,
      "flexible": 3680,
      "year": 3681,
      "completed": 3682,
      "storageAccounts": 3683,
      "aun": 3684,
      "Input": 3685,
      "explicit": 3686,
      "terraform": 3687,
      "her": 3688,
      "optimized": 3689,
      "signific": 3690,
      "40": 3691,
      "Category": 3692,
      "theMicrosoft": 3693,
      "RAM": 3694,
      "further": 3695,
      "Pipeline": 3696,
      "itle": 3697,
      "DN": 3698,
      "arer": 3699,
      "Preview": 3700,
      "consumption": 3701,
      "Sets": 3702,
      "Troublesho": 3703,
      "techn": 3704,
      "Automat": 3705,
      "Ali": 3706,
      "operator": 3707,
      "enabling": 3708,
      "groupId": 3709,
      "significant": 3710,
      "Release": 3711,
      "cached": 3712,
      "arc": 3713,
      "mss": 3714,
      "determin": 3715,
      "And": 3716,
      "First": 3717,
      "array": 3718,
      "Gra": 3719,
      "split": 3720,
      "reports": 3721,
      "HERE": 3722,
      "Portal": 3723,
      "quality": 3724,
      "starts": 3725,
      "nor": 3726,
      "embed": 3727,
      "overall": 3728,
      "sl": 3729,
      "transfer": 3730,
      "ned": 3731,
      "docs": 3732,
      "better": 3733,
      "Chat": 3734,
      "pology": 3735,
      "SQL_": 3736,
      "timestamp": 3737,
      "fet": 3738,
      "questions": 3739,
      "PR": 3740,
      "ifest": 3741,
      "HTTPS": 3742,
      "CL": 3743,
      "orchestr": 3744,
      "dr": 3745,
      "successful": 3746,
      "products": 3747,
      "safe": 3748,
      "checklist": 3749,
      "ending": 3750,
      "256": 3751,
      "snapshots": 3752,
      "exe": 3753,
      "levels": 3754,
      "lifecycle": 3755,
      "Global": 3756,
      "Jobs": 3757,
      "ges": 3758,
      "ker": 3759,
      "Head": 3760,
      "purch": 3761,
      "flag": 3762,
      "Parameters": 3763,
      "ventory": 3764,
      "circuit": 3765,
      "ASE": 3766,
      "links": 3767,
      "corresponding": 3768,
      "Dest": 3769,
      "making": 3770,
      "capture": 3771,
      "Because": 3772,
      "home": 3773,
      "advanced": 3774,
      "plac": 3775,
      "autoscale": 3776,
      "={": 3777,
      "ift": 3778,
      "regular": 3779,
      "vulner": 3780,
      "ente": 3781,
      "confirm": 3782,
      "Tags": 3783,
      "intro": 3784,
      "assistant": 3785,
      "collected": 3786,
      "IPAddress": 3787,
      "WAF": 3788,
      "nw": 3789,
      "manager": 3790,
      "[--": 3791,
      "Internet": 3792,
      "SSL": 3793,
      "son": 3794,
      "healthy": 3795,
      "ero": 3796,
      "problems": 3797,
      "ik": 3798,
      "coll": 3799,
      "loss": 3800,
      "inside": 3801,
      "hana": 3802,
      "mt": 3803,
      "entelemetry": 3804,
      "Remote": 3805,
      "dns": 3806,
      "consistent": 3807,
      "iter": 3808,
      "AzVirtualNetwork": 3809,
      "B2": 3810,
      "owner": 3811,
      "invol": 3812,
      "JavaScript": 3813,
      "scheduled": 3814,
      "guest": 3815,
      "PT": 3816,
      "acr": 3817,
      "CONN": 3818,
      "reach": 3819,
      "mental": 3820,
      "Solution": 3821,
      "consistency": 3822,
      "/.": 3823,
      "idat": 3824,
      "along": 3825,
      "streaming": 3826,
      "processed": 3827,
      "transactions": 3828,
      "align": 3829,
      "observ": 3830,
      "starting": 3831,
      "execut": 3832,
      "Line": 3833,
      "cop": 3834,
      "enforce": 3835,
      "locks": 3836,
      "Cogn": 3837,
      "ante": 3838,
      "lies": 3839,
      "param": 3840,
      "ural": 3841,
      "Product": 3842,
      "Cognitive": 3843,
      "missions": 3844,
      "Rev": 3845,
      "Parameter": 3846,
      "AWS": 3847,
      "center": 3848,
      "INFO": 3849,
      "90": 3850,
      "Format": 3851,
      "Module": 3852,
      "tempor": 3853,
      "notebook": 3854,
      "\\\":": 3855,
      "Partition": 3856,
      "ek": 3857,
      "opens": 3858,
      "quickly": 3859,
      "CATION": 3860,
      "arante": 3861,
      "CREATE": 3862,
      "bud": 3863,
      "serverless": 3864,
      "Api": 3865,
      "pop": 3866,
      "vaults": 3867,
      "Range": 3868,
      "logger": 3869,
      "ocf": 3870,
      "imate": 3871,
      "ux": 3872,
      "Tutorial": 3873,
      "capability": 3874,
      "Fabrikam": 3875,
      "syntax": 3876,
      "Assignment": 3877,
      "opentelemetry": 3878,
      "Navigate": 3879,
      "house": 3880,
      "functionApp": 3881,
      "execute": 3882,
      "Console": 3883,
      "mpling": 3884,
      "Y_": 3885,
      "Cap": 3886,
      "Destination": 3887,
      "guarante": 3888,
      "screen": 3889,
      "Hand": 3890,
      "methe": 3891,
      "privileg": 3892,
      "tel": 3893,
      "DO": 3894,
      "atory": 3895,
      "underlying": 3896,
      "lar": 3897,
      "utilization": 3898,
      "history": 3899,
      "Counter": 3900,
      "going": 3901,
      "metheus": 3902,
      "notification": 3903,
      "refresh": 3904,
      "useful": 3905,
      "curl": 3906,
      "Grafana": 3907,
      ",\"": 3908,
      "2_": 3909,
      "length": 3910,
      "Lat": 3911,
      "Comput": 3912,
      "pair": 3913,
      "ences": 3914,
      "................": 3915,
      "entry": 3916,
      "Vol": 3917,
      "While": 3918,
      "Cond": 3919,
      "identifier": 3920,
      "premium": 3921,
      "attributes": 3922,
      "immediate": 3923,
      "limitations": 3924,
      "categ": 3925,
      "etplace": 3926,
      "eq": 3927,
      "fault": 3928,
      "resourcegroup": 3929,
      "ECTION": 3930,
      "elastic": 3931,
      "RESOURCE_GROUP_NAME": 3932,
      "Med": 3933,
      "ird": 3934,
      "Click": 3935,
      "mapping": 3936,
      "none": 3937,
      "loy": 3938,
      "Reserv": 3939,
      "exists": 3940,
      "artifactId": 3941,
      "ENTITY": 3942,
      "releases": 3943,
      "':": 3944,
      "filters": 3945,
      "86": 3946,
      "I_": 3947,
      "Also": 3948,
      "purpose": 3949,
      "organizations": 3950,
      "displayed": 3951,
      "46": 3952,
      "{}": 3953,
      "aunch": 3954,
      "earlier": 3955,
      "Params": 3956,
      "shard": 3957,
      "subject": 3958,
      "Provide": 3959,
      "Connector": 3960,
      "achieve": 3961,
      "hash": 3962,
      "delivery": 3963,
      "ession": 3964,
      "erial": 3965,
      "Ul": 3966,
      "ER_": 3967,
      "developer": 3968,
      "RESOURCE": 3969,
      "foc": 3970,
      "seeCreate": 3971,
      "idential": 3972,
      "acceler": 3973,
      "Failover": 3974,
      "Schedule": 3975,
      "defaultValue": 3976,
      "members": 3977,
      "original": 3978,
      "dotnet": 3979,
      "unity": 3980,
      "Consumption": 3981,
      "gether": 3982,
      "feder": 3983,
      "Apply": 3984,
      "opt": 3985,
      "rot": 3986,
      "severity": 3987,
      "editor": 3988,
      "Alias": 3989,
      "37": 3990,
      "trusted": 3991,
      "STRING": 3992,
      "selectAdd": 3993,
      "sume": 3994,
      "CM": 3995,
      "reads": 3996,
      "assets": 3997,
      "short": 3998,
      "headers": 3999,
      "azureml": 4000,
      "filtering": 4001,
      "contents": 4002,
      "constrain": 4003,
      "signed": 4004,
      "follows": 4005,
      "Usage": 4006,
      "'/": 4007,
      "mitig": 4008,
      "Government": 4009,
      "Memory": 4010,
      "Step": 4011,
      "entity": 4012,
      "notifications": 4013,
      "adjust": 4014,
      "together": 4015,
      "Total": 4016,
      "OPENA": 4017,
      "builder": 4018,
      "Disks": 4019,
      "resolve": 4020,
      "resiliency": 4021,
      "Evalu": 4022,
      "nat": 4023,
      "Imple": 4024,
      "cording": 4025,
      "argu": 4026,
      "fetch": 4027,
      "ops": 4028,
      "area": 4029,
      "ownt": 4030,
      "locate": 4031,
      "169": 4032,
      "vide": 4033,
      "2017": 4034,
      "attached": 4035,
      "problem": 4036,
      "integrated": 4037,
      "gor": 4038,
      "urst": 4039,
      "break": 4040,
      "iency": 4041,
      "SelectCreate": 4042,
      "ride": 4043,
      "Audit": 4044,
      "S_": 4045,
      "SERV": 4046,
      "mk": 4047,
      "accessible": 4048,
      "differen": 4049,
      "Initial": 4050,
      "WIT": 4051,
      "gpt": 4052,
      "49": 4053,
      "westus": 4054,
      "OPENAI_": 4055,
      "89": 4056,
      "\":{": 4057,
      "Instead": 4058,
      "introdu": 4059,
      "Pot": 4060,
      "Sku": 4061,
      "yml": 4062,
      "term": 4063,
      "Results": 4064,
      "EB": 4065,
      "Potential": 4066,
      "deleg": 4067,
      "=\"<": 4068,
      "Ultra": 4069,
      "\":{\"": 4070,
      "pper": 4071,
      "Timeout": 4072,
      "CONT": 4073,
      "owntime": 4074,
      "Policies": 4075,
      "Restore": 4076,
      "python": 4077,
      "ays": 4078,
      "Team": 4079,
      "empty": 4080,
      "written": 4081,
      "Info": 4082,
      "appliance": 4083,
      "Updat": 4084,
      "Permissions": 4085,
      "FQ": 4086,
      "PS": 4087,
      "invest": 4088,
      "General": 4089,
      "gorith": 4090,
      "delay": 4091,
      "uture": 4092,
      "Hello": 4093,
      "AddressPrefix": 4094,
      "communicate": 4095,
      "advantage": 4096,
      "168": 4097,
      "ierarch": 4098,
      "balancing": 4099,
      "--------------------------------": 4100,
      "gered": 4101,
      "charges": 4102,
      "mnt": 4103,
      "FQDN": 4104,
      "./": 4105,
      "Comm": 4106,
      "NU": 4107,
      "simple": 4108,
      "recover": 4109,
      "Ab": 4110,
      "sections": 4111,
      "redire": 4112,
      "party": 4113,
      "CONNECTION": 4114,
      "TER": 4115,
      "Pod": 4116,
      "Processor": 4117,
      "abor": 4118,
      "Geo": 4119,
      "tcp": 4120,
      "progress": 4121,
      "Rest": 4122,
      "Serv": 4123,
      "85": 4124,
      "Values": 4125,
      "Kusto": 4126,
      "building": 4127,
      "invo": 4128,
      "87": 4129,
      "Flexible": 4130,
      "}.": 4131,
      "ially": 4132,
      "Continu": 4133,
      "topic": 4134,
      "oth": 4135,
      "onal": 4136,
      "distribution": 4137,
      "Sw": 4138,
      "aring": 4139,
      "outage": 4140,
      "interactive": 4141,
      "www": 4142,
      "terminal": 4143,
      "DAT": 4144,
      "topology": 4145,
      "Bearer": 4146,
      "Vm": 4147,
      "Operations": 4148,
      "254": 4149,
      "vered": 4150,
      "Standard_": 4151,
      "driver": 4152,
      "voke": 4153,
      "skip": 4154,
      "prompted": 4155,
      "cli": 4156,
      "Business": 4157,
      "alytical": 4158,
      "Migration": 4159,
      "\"-": 4160,
      "dropdown": 4161,
      "gres": 4162,
      "1000": 4163,
      "bro": 4164,
      "SelectNext": 4165,
      "ka": 4166,
      "Owner": 4167,
      "removed": 4168,
      "hn": 4169,
      "Cat": 4170,
      "mv": 4171,
      "${{": 4172,
      "IPv6": 4173,
      "Instances": 4174,
      "retriev": 4175,
      "symb": 4176,
      "answ": 4177,
      "reserved": 4178,
      "UserAssigned": 4179,
      "Automatic": 4180,
      "developers": 4181,
      "Alert": 4182,
      "Hat": 4183,
      "Send": 4184,
      "cmdlet": 4185,
      "binding": 4186,
      "\"\",": 4187,
      "else": 4188,
      "ouble": 4189,
      "pective": 4190,
      "future": 4191,
      "Scal": 4192,
      "Fail": 4193,
      "Patch": 4194,
      "Span": 4195,
      "downtime": 4196,
      "turn": 4197,
      "triggered": 4198,
      "resource_group_name": 4199,
      "Developer": 4200,
      "')]\"": 4201,
      "Tenant": 4202,
      "extract": 4203,
      "SelectSave": 4204,
      "Device": 4205,
      "Metadata": 4206,
      "close": 4207,
      "thrott": 4208,
      "multit": 4209,
      "datetime": 4210,
      "manifest": 4211,
      "princ": 4212,
      "partitions": 4213,
      "192": 4214,
      "": 4215,
      "pip": 4216,
      "roleDefinitions": 4217,
      "OperationalInsights": 4218,
      "EM": 4219,
      "_data": 4220,
      "Extensions": 4221,
      "ZRS": 4222,
      "cannot": 4223,
      "filtered": 4224,
      "mg": 4225,
      "Upload": 4226,
      "scalability": 4227,
      "builds": 4228,
      "approval": 4229,
      "Integration": 4230,
      "though": 4231,
      "preced": 4232,
      "defaults": 4233,
      "OAuth": 4234,
      "Workload": 4235,
      "Catalog": 4236,
      "ali": 4237,
      "navig": 4238,
      "connecting": 4239,
      "customize": 4240,
      "resolution": 4241,
      "ales": 4242,
      "according": 4243,
      "poses": 4244,
      "namespaces": 4245,
      "RM": 4246,
      "attribute": 4247,
      "ection": 4248,
      "_type": 4249,
      "dashboards": 4250,
      "->": 4251,
      "seg": 4252,
      "good": 4253,
      "expir": 4254,
      "attacks": 4255,
      "expl": 4256,
      "train": 4257,
      "Interface": 4258,
      "57": 4259,
      "fficient": 4260,
      "500": 4261,
      "AZURE_OPENAI_": 4262,
      "spage": 4263,
      "produ": 4264,
      "GRE": 4265,
      "Lock": 4266,
      "since": 4267,
      "Register": 4268,
      "Endpoints": 4269,
      "Large": 4270,
      "larger": 4271,
      "enco": 4272,
      "tions": 4273,
      "azurerm_resource_group": 4274,
      "completion": 4275,
      "Billing": 4276,
      "linux": 4277,
      "illed": 4278,
      "tracking": 4279,
      "ious": 4280,
      "Label": 4281,
      "Tim": 4282,
      "selectNext": 4283,
      "UST": 4284,
      "Configurations": 4285,
      "Examples": 4286,
      "refer": 4287,
      "accur": 4288,
      "old": 4289,
      "third": 4290,
      "live": 4291,
      "special": 4292,
      "UNT": 4293,
      "Over": 4294,
      "asing": 4295,
      "Logger": 4296,
      "SelectAdd": 4297,
      "activities": 4298,
      "Nor": 4299,
      "occurs": 4300,
      "AV": 4301,
      "easily": 4302,
      ":/": 4303,
      "ped": 4304,
      "explicitly": 4305,
      "logies": 4306,
      "mu": 4307,
      "une": 4308,
      "afka": 4309,
      "rich": 4310,
      "ority": 4311,
      "character": 4312,
      "por": 4313,
      "providing": 4314,
      "_NW1_": 4315,
      "benefit": 4316,
      "Find": 4317,
      "Reli": 4318,
      "=~": 4319,
      "~~": 4320,
      "Well": 4321,
      "scopes": 4322,
      "websites": 4323,
      "slot": 4324,
      "ename": 4325,
      "speed": 4326,
      "numbers": 4327,
      "NC": 4328,
      "ACR": 4329,
      "More": 4330,
      "onboard": 4331,
      "Collect": 4332,
      "Point": 4333,
      "eria": 4334,
      "WHERE": 4335,
      "func": 4336,
      "Marketplace": 4337,
      "tri": 4338,
      "Don": 4339,
      "embedding": 4340,
      "cpu": 4341,
      "nodepool": 4342,
      "integrate": 4343,
      "Implement": 4344,
      "license": 4345,
      "nw1": 4346,
      "prec": 4347,
      "128": 4348,
      "Ben": 4349,
      "Fin": 4350,
      "Snapsh": 4351,
      "Guide": 4352,
      "?\"": 4353,
      "labels": 4354,
      "planning": 4355,
      "Diagnostic": 4356,
      "IDENTITY": 4357,
      "Worker": 4358,
      "95": 4359,
      "performed": 4360,
      "instrumentation": 4361,
      "Repositor": 4362,
      "Running": 4363,
      "Call": 4364,
      "Fed": 4365,
      "entities": 4366,
      "Sample": 4367,
      "Dri": 4368,
      "reement": 4369,
      "cer": 4370,
      "lib": 4371,
      "transform": 4372,
      "legacy": 4373,
      "actual": 4374,
      "cccc": 4375,
      "troubleshooting": 4376,
      "PRO": 4377,
      "stages": 4378,
      "443": 4379,
      "visor": 4380,
      "iction": 4381,
      "much": 4382,
      "DDo": 4383,
      "hierarch": 4384,
      "having": 4385,
      "score": 4386,
      "frequency": 4387,
      "attach": 4388,
      "Json": 4389,
      "Pe": 4390,
      "Block": 4391,
      "NO": 4392,
      "api_": 4393,
      "technology": 4394,
      "Stop": 4395,
      "handling": 4396,
      "licable": 4397,
      "postgres": 4398,
      "Foundry": 4399,
      "vmss": 4400,
      "categories": 4401,
      "s_": 4402,
      "uGet": 4403,
      "Exist": 4404,
      "Scopes": 4405,
      "jar": 4406,
      "Develop": 4407,
      "nsg": 4408,
      "PaaS": 4409,
      "Warning": 4410,
      "RAMP": 4411,
      "stamp": 4412,
      "signature": 4413,
      ":=": 4414,
      "counter": 4415,
      "Program": 4416,
      "urable": 4417,
      "indicates": 4418,
      "ialog": 4419,
      "sc_": 4420,
      "DDoS": 4421,
      "Brow": 4422,
      "istics": 4423,
      "Prometheus": 4424,
      "Authenticate": 4425,
      "datasets": 4426,
      "regard": 4427,
      "Env": 4428,
      "received": 4429,
      "Mongo": 4430,
      "Retri": 4431,
      "ULT": 4432,
      "views": 4433,
      "evaluation": 4434,
      "Bytes": 4435,
      "optimization": 4436,
      "rap": 4437,
      "summary": 4438,
      "39": 4439,
      "attemp": 4440,
      "adb": 4441,
      "Boot": 4442,
      "ruption": 4443,
      "'),": 4444,
      "exceed": 4445,
      "42": 4446,
      "dd3d": 4447,
      ")\"": 4448,
      "theCreate": 4449,
      "Types": 4450,
      "SLA": 4451,
      "sends": 4452,
      "sug": 4453,
      "collabor": 4454,
      "fast": 4455,
      "securely": 4456,
      "deny": 4457,
      "tic": 4458,
      "FedRAMP": 4459,
      "getenv": 4460,
      "icted": 4461,
      "Sche": 4462,
      "COUNT": 4463,
      "BY": 4464,
      "expect": 4465,
      "replicated": 4466,
      "LoadBalancer": 4467,
      "sdk": 4468,
      "around": 4469,
      "Display": 4470,
      "lections": 4471,
      "Pric": 4472,
      "sufficient": 4473,
      "Tools": 4474,
      "chmark": 4475,
      "unavailable": 4476,
      "allowing": 4477,
      "Ro": 4478,
      "lta": 4479,
      "Items": 4480,
      "\"),": 4481,
      "bash": 4482,
      "req": 4483,
      "allocation": 4484,
      "Proxy": 4485,
      "Servers": 4486,
      "conside": 4487,
      "five": 4488,
      "aily": 4489,
      "myAKS": 4490,
      "holds": 4491,
      "matches": 4492,
      "Rout": 4493,
      "params": 4494,
      "considered": 4495,
      "Session": 4496,
      "[{\"": 4497,
      "factors": 4498,
      "E_NAME": 4499,
      "connectionString": 4500,
      "aw": 4501,
      "datacenter": 4502,
      "regist": 4503,
      "pol": 4504,
      "inher": 4505,
      "Connected": 4506,
      "checkout": 4507,
      "Architected": 4508,
      "studio": 4509,
      "'))]": 4510,
      "ples": 4511,
      "standards": 4512,
      "cc2c": 4513,
      "000000000000": 4514,
      "immediately": 4515,
      "multitenant": 4516,
      "Computer": 4517,
      "Failed": 4518,
      "tom": 4519,
      "pg": 4520,
      "NoSQL": 4521,
      "prob": 4522,
      "IPv4": 4523,
      "CLIENT": 4524,
      "eeeeee": 4525,
      "But": 4526,
      "APPLI": 4527,
      "price": 4528,
      "evaluate": 4529,
      "0a0a": 4530,
      "igno": 4531,
      "WITH": 4532,
      "(),": 4533,
      "care": 4534,
      "wide": 4535,
      "validat": 4536,
      "correctly": 4537,
      "rsc_": 4538,
      "WebJobs": 4539,
      "csv": 4540,
      "pilot": 4541,
      "weight": 4542,
      "Maven": 4543,
      "big": 4544,
      "title": 4545,
      "\"-\"": 4546,
      "billed": 4547,
      "itself": 4548,
      "placed": 4549,
      "comment": 4550,
      "ubunt": 4551,
      "terms": 4552,
      "adds": 4553,
      "telligence": 4554,
      "principals": 4555,
      "Volume": 4556,
      "Pricing": 4557,
      "ubuntu": 4558,
      "pas": 4559,
      "pto": 4560,
      "Eng": 4561,
      "}\",": 4562,
      "algorith": 4563,
      "Through": 4564,
      "four": 4565,
      "pth": 4566,
      "outh": 4567,
      "parse": 4568,
      "responses": 4569,
      "NULL": 4570,
      "fabrikam": 4571,
      "han": 4572,
      "liant": 4573,
      "NOT": 4574,
      "AzResourceGroup": 4575,
      "vmName": 4576,
      "analytical": 4577,
      "Shift": 4578,
      "WEB": 4579,
      "supp": 4580,
      "Tier": 4581,
      "war": 4582,
      "allocated": 4583,
      "65": 4584,
      "INS": 4585,
      "applicable": 4586,
      "keyVault": 4587,
      "queues": 4588,
      "UID": 4589,
      "During": 4590,
      "ix": 4591,
      "rather": 4592,
      "HP": 4593,
      "rend": 4594,
      "azure_": 4595,
      "clear": 4596,
      "txt": 4597,
      "accessed": 4598,
      "Percent": 4599,
      "tenantId": 4600,
      "63": 4601,
      "Tw": 4602,
      "preferred": 4603,
      ".)": 4604,
      "gateways": 4605,
      "NuGet": 4606,
      "trac": 4607,
      "async": 4608,
      "bd": 4609,
      "clone": 4610,
      "IB": 4611,
      "Colum": 4612,
      "POSTGRE": 4613,
      "practice": 4614,
      "Built": 4615,
      "Sp": 4616,
      "structured": 4617,
      "Wait": 4618,
      "sn": 4619,
      "Probe": 4620,
      "selectSave": 4621,
      "easy": 4622,
      "Connections": 4623,
      "FT": 4624,
      "budget": 4625,
      "rgName": 4626,
      "testation": 4627,
      "enough": 4628,
      "sampling": 4629,
      "profiles": 4630,
      "Ref": 4631,
      "chedul": 4632,
      "Variable": 4633,
      "Advisor": 4634,
      "Acceler": 4635,
      "prep": 4636,
      "devops": 4637,
      "Troubleshoot": 4638,
      "LD": 4639,
      "Sing": 4640,
      "Soft": 4641,
      "personal": 4642,
      "micros": 4643,
      "mean": 4644,
      "branches": 4645,
      "recent": 4646,
      "1024": 4647,
      "dialog": 4648,
      "Conf": 4649,
      "XML": 4650,
      "week": 4651,
      "macOS": 4652,
      "=$": 4653,
      "ABLE": 4654,
      "4e4e4e": 4655,
      "537": 4656,
      "VERS": 4657,
      "tored": 4658,
      "render": 4659,
      "suit": 4660,
      "apping": 4661,
      "Based": 4662,
      "Succeeded": 4663,
      "quotas": 4664,
      "69": 4665,
      "tran": 4666,
      "max_": 4667,
      "Language": 4668,
      "CESS": 4669,
      "Dy": 4670,
      "Gallery": 4671,
      "GPU": 4672,
      "38": 4673,
      "unless": 4674,
      "lastic": 4675,
      "False": 4676,
      "Include": 4677,
      "fected": 4678,
      "partner": 4679,
      "bb1b": 4680,
      "aaaa0a0a": 4681,
      "FAQ": 4682,
      "eeeeee4e4e4e": 4683,
      "give": 4684,
      "xxx": 4685,
      "video": 4686,
      "dig": 4687,
      "incoming": 4688,
      "imes": 4689,
      "anular": 4690,
      "Otherwise": 4691,
      "_KEY": 4692,
      "recur": 4693,
      "?.": 4694,
      "SelectReview": 4695,
      "ously": 4696,
      "Convert": 4697,
      "flex": 4698,
      "azurewebsites": 4699,
      "/*\",": 4700,
      "IPs": 4701,
      "normal": 4702,
      "meter": 4703,
      "Intel": 4704,
      "hanadb": 4705,
      "Recommendations": 4706,
      "employ": 4707,
      "strategies": 4708,
      "Trusted": 4709,
      "MongoDB": 4710,
      "SecurityGroup": 4711,
      "my_": 4712,
      "Dist": 4713,
      "Ut": 4714,
      "Always": 4715,
      "purchase": 4716,
      "containing": 4717,
      "sort": 4718,
      "itu": 4719,
      "incur": 4720,
      "Elastic": 4721,
      "exact": 4722,
      "Analysis": 4723,
      "represents": 4724,
      "Main": 4725,
      "Applies": 4726,
      "seeUse": 4727,
      "covered": 4728,
      "child": 4729,
      "Assignments": 4730,
      "Seconds": 4731,
      "VERSION": 4732,
      "staging": 4733,
      "modif": 4734,
      "Multi": 4735,
      "submit": 4736,
      "strings": 4737,
      "pick": 4738,
      "Administrators": 4739,
      "storageAccountName": 4740,
      "Analyze": 4741,
      "v5": 4742,
      "bal": 4743,
      "rates": 4744,
      "remaining": 4745,
      "Classic": 4746,
      "About": 4747,
      "yet": 4748,
      ".<": 4749,
      "Applications": 4750,
      "navigation": 4751,
      "PUT": 4752,
      "criteria": 4753,
      "Purview": 4754,
      "ade": 4755,
      "ncy": 4756,
      "\"}": 4757,
      ":<": 4758,
      "dc": 4759,
      "Alternative": 4760,
      "Repository": 4761,
      "simul": 4762,
      ")/": 4763,
      "Zones": 4764,
      "andra": 4765,
      "displays": 4766,
      "Reliability": 4767,
      "ness": 4768,
      "protocols": 4769,
      "Ded": 4770,
      "expression": 4771,
      "anAzure": 4772,
      "ulatory": 4773,
      "Details": 4774,
      "minimize": 4775,
      "threats": 4776,
      "concepts": 4777,
      "assandra": 4778,
      "Saf": 4779,
      "ascs": 4780,
      "indexes": 4781,
      "lots": 4782,
      "material": 4783,
      "Last": 4784,
      "DI": 4785,
      "AGE_": 4786,
      "mechanism": 4787,
      "gallery": 4788,
      "become": 4789,
      "corpor": 4790,
      "smaller": 4791,
      "Capacity": 4792,
      "001": 4793,
      "becomes": 4794,
      "icious": 4795,
      "pped": 4796,
      "": 4797,
      "scoped": 4798,
      "Common": 4799,
      "DCR": 4800,
      "AIN": 4801,
      "';": 4802,
      "prop": 4803,
      "vc": 4804,
      "¸": 4805,
      "iples": 4806,
      "responsible": 4807,
      "Artifacts": 4808,
      "OL": 4809,
      "Currently": 4810,
      "Ho": 4811,
      "TT": 4812,
      "egress": 4813,
      "dern": 4814,
      "extended": 4815,
      "mber": 4816,
      "virtualMachine": 4817,
      "Sum": 4818,
      "}:": 4819,
      "CognitiveServices": 4820,
      "ank": 4821,
      "administrators": 4822,
      "others": 4823,
      "prefixes": 4824,
      "izard": 4825,
      "ights": 4826,
      "incident": 4827,
      "Bash": 4828,
      "reporting": 4829,
      "paste": 4830,
      "Deter": 4831,
      "75": 4832,
      "Fam": 4833,
      "ledge": 4834,
      "greater": 4835,
      "ago": 4836,
      "AzAccount": 4837,
      "DataActions": 4838,
      "/*/": 4839,
      "myAKSCluster": 4840,
      "deletion": 4841,
      "Emp": 4842,
      "hostname": 4843,
      "mkdir": 4844,
      "DateTime": 4845,
      "blue": 4846,
      "pow": 4847,
      "Appro": 4848,
      "webhook": 4849,
      "Threshold": 4850,
      "void": 4851,
      "contentVersion": 4852,
      "([": 4853,
      "light": 4854,
      "statement": 4855,
      "CDN": 4856,
      "principles": 4857,
      "gen": 4858,
      "workbook": 4859,
      "Ingest": 4860,
      "mut": 4861,
      "inAzure": 4862,
      "bunt": 4863,
      "Snapshot": 4864,
      "QAS": 4865,
      "direction": 4866,
      "defines": 4867,
      "\").": 4868,
      "Ubunt": 4869,
      "verse": 4870,
      "Confirm": 4871,
      "combin": 4872,
      "meta": 4873,
      "minute": 4874,
      "preceding": 4875,
      "planned": 4876,
      "yes": 4877,
      "iliar": 4878,
      "Ubuntu": 4879,
      "bas": 4880,
      "ScaleSet": 4881,
      "3333": 4882,
      "clus": 4883,
      "listener": 4884,
      "writes": 4885,
      "choices": 4886,
      "Require": 4887,
      "graphic": 4888,
      "detected": 4889,
      "Copilot": 4890,
      "granular": 4891,
      "shell": 4892,
      "Claim": 4893,
      "Alerts": 4894,
      "AGE": 4895,
      "saved": 4896,
      "Face": 4897,
      "NVA": 4898,
      "AZURE_POSTGRE": 4899,
      "aad": 4900,
      "ested": 4901,
      "================": 4902,
      "Den": 4903,
      "idle": 4904,
      "Crit": 4905,
      "percentage": 4906,
      "yy": 4907,
      "likely": 4908,
      "Invoke": 4909,
      "obtain": 4910,
      "analyz": 4911,
      "Guid": 4912,
      "catalog": 4913,
      "ableScopes": 4914,
      "Dns": 4915,
      "ital": 4916,
      "oss": 4917,
      "Outbound": 4918,
      "cial": 4919,
      "src": 4920,
      "restrictions": 4921,
      "Days": 4922,
      "ather": 4923,
      "C_": 4924,
      "ystem": 4925,
      "approaches": 4926,
      "#\",": 4927,
      "43": 4928,
      ".*": 4929,
      "burst": 4930,
      "specifies": 4931,
      "ERT": 4932,
      "annotations": 4933,
      ".\",": 4934,
      "mail": 4935,
      "Samples": 4936,
      "qual": 4937,
      "ffix": 4938,
      "gg": 4939,
      "Controller": 4940,
      "override": 4941,
      "Identify": 4942,
      "combination": 4943,
      "desc": 4944,
      "QU": 4945,
      "vCore": 4946,
      "desktop": 4947,
      "SKUs": 4948,
      "frequently": 4949,
      "OM": 4950,
      "classification": 4951,
      "Requests": 4952,
      "temporary": 4953,
      "modified": 4954,
      "intended": 4955,
      "designer": 4956,
      "deprec": 4957,
      "Login": 4958,
      "aka": 4959,
      "happens": 4960,
      "granted": 4961,
      "Alternatively": 4962,
      "Sim": 4963,
      "pages": 4964,
      "TH": 4965,
      "faster": 4966,
      "lean": 4967,
      "Dec": 4968,
      "compatible": 4969,
      "External": 4970,
      "sending": 4971,
      "ump": 4972,
      "entries": 4973,
      "createcommand": 4974,
      "Many": 4975,
      "dependsOn": 4976,
      "Dedicated": 4977,
      "RDP": 4978,
      "press": 4979,
      "affected": 4980,
      "())": 4981,
      "requirement": 4982,
      "reliable": 4983,
      "ons": 4984,
      "increases": 4985,
      "Encrypt": 4986,
      "pn": 4987,
      "connectors": 4988,
      "igning": 4989,
      "GIN": 4990,
      "Generation": 4991,
      "drive": 4992,
      "REG": 4993,
      "clientId": 4994,
      "conflic": 4995,
      "Handler": 4996,
      "crm": 4997,
      "newly": 4998,
      "dbc": 4999,
      "scalable": 5000,
      "msp": 5001,
      "relat": 5002,
      "theAdd": 5003,
      "intensive": 5004,
      "SID": 5005,
      "MENT": 5006,
      "serve": 5007,
      "41": 5008,
      "args": 5009,
      "-<": 5010,
      "too": 5011,
      "generation": 5012,
      "final": 5013,
      "dead": 5014,
      "}'": 5015,
      ">\")": 5016,
      "Where": 5017,
      "istrative": 5018,
      "feedback": 5019,
      "completes": 5020,
      "gives": 5021,
      "Best": 5022,
      "IO": 5023,
      "Off": 5024,
      "Li": 5025,
      "double": 5026,
      "Incre": 5027,
      "get_": 5028,
      "Allowed": 5029,
      "measured": 5030,
      "decisions": 5031,
      "Throughput": 5032,
      "Standard_D": 5033,
      "daily": 5034,
      "Recor": 5035,
      "cket": 5036,
      "HDB": 5037,
      "ners": 5038,
      "Aggreg": 5039,
      "Direct": 5040,
      "strong": 5041,
      "upgrades": 5042,
      "manages": 5043,
      "asked": 5044,
      "interact": 5045,
      "purposes": 5046,
      "vary": 5047,
      "Overviewpage": 5048,
      "_key": 5049,
      "Grant": 5050,
      "########": 5051,
      "processor": 5052,
      "persistent": 5053,
      "recogn": 5054,
      "chun": 5055,
      "97": 5056,
      "flexibility": 5057,
      "x64": 5058,
      "Messages": 5059,
      "Both": 5060,
      ":\"": 5061,
      "messaging": 5062,
      "SDKs": 5063,
      "Optimize": 5064,
      "Keep": 5065,
      "dimension": 5066,
      "reasons": 5067,
      "IAM": 5068,
      "Online": 5069,
      "MachineLearning": 5070,
      "din": 5071,
      "asynchron": 5072,
      "Clean": 5073,
      "UB": 5074,
      "ER_NAME": 5075,
      "Interval": 5076,
      "reduces": 5077,
      "easier": 5078,
      "CLUST": 5079,
      "distin": 5080,
      "Field": 5081,
      "]\"": 5082,
      "bicep": 5083,
      "Accept": 5084,
      "IaaS": 5085,
      "cellence": 5086,
      "Jo": 5087,
      "ression": 5088,
      "covers": 5089,
      "payload": 5090,
      "orchestration": 5091,
      "Linked": 5092,
      "technical": 5093,
      "Pa": 5094,
      "SI": 5095,
      "RET": 5096,
      "ACCOUNT": 5097,
      "Full": 5098,
      "published": 5099,
      "Single": 5100,
      "passed": 5101,
      "reading": 5102,
      "principalId": 5103,
      "Secrets": 5104,
      "ServiceBus": 5105,
      "Priority": 5106,
      "suitable": 5107,
      "PM": 5108,
      "azureuser": 5109,
      "_file": 5110,
      "areas": 5111,
      "essential": 5112,
      "automate": 5113,
      "phase": 5114,
      "SystemAssigned": 5115,
      "FILE": 5116,
      "operate": 5117,
      "localhost": 5118,
      "400": 5119,
      "mediation": 5120,
      "determines": 5121,
      "familiar": 5122,
      "engineering": 5123,
      "TE": 5124,
      "mantic": 5125,
      "ills": 5126,
      "holder": 5127,
      "RoleDefinition": 5128,
      "charge": 5129,
      "holders": 5130,
      "channel": 5131,
      "posed": 5132,
      "That": 5133,
      "implementing": 5134,
      "roleName": 5135,
      "placement": 5136,
      "HTML": 5137,
      "standby": 5138,
      "IDs": 5139,
      "technologies": 5140,
      "zero": 5141,
      "centralized": 5142,
      "Db": 5143,
      "usually": 5144,
      "naming": 5145,
      "Are": 5146,
      "reh": 5147,
      "storing": 5148,
      "Creating": 5149,
      "ech": 5150,
      "Multiple": 5151,
      "cluded": 5152,
      "troubleshoot": 5153,
      "Success": 5154,
      "mind": 5155,
      "upper": 5156,
      "Continuous": 5157,
      "snipp": 5158,
      "lake": 5159,
      "properly": 5160,
      "complexity": 5161,
      "stable": 5162,
      "/$": 5163,
      "average": 5164,
      "continuity": 5165,
      "msi": 5166,
      "Determine": 5167,
      "Execute": 5168,
      "ildcard": 5169,
      "MY": 5170,
      "situ": 5171,
      "selection": 5172,
      "Available": 5173,
      "connectedClusters": 5174,
      "exceptions": 5175,
      "storage_": 5176,
      "archive": 5177,
      "Component": 5178,
      "RH": 5179,
      "theBasic": 5180,
      "accountName": 5181,
      "myresourcegroup": 5182,
      "near": 5183,
      "ml_client": 5184,
      "increased": 5185,
      "exclude": 5186,
      "RAN": 5187,
      "urbo": 5188,
      "accessing": 5189,
      "confidential": 5190,
      "alias": 5191,
      "expiration": 5192,
      "discount": 5193,
      "visibility": 5194,
      "duction": 5195,
      "espec": 5196,
      "Rece": 5197,
      "ping": 5198,
      "ody": 5199,
      "Headers": 5200,
      "Column": 5201,
      "Offic": 5202,
      "inventory": 5203,
      "compliant": 5204,
      "Frontend": 5205,
      "car": 5206,
      "WindowsServer": 5207,
      "relationsh": 5208,
      "inference": 5209,
      "effor": 5210,
      "computing": 5211,
      "\\.": 5212,
      "shut": 5213,
      "CPUs": 5214,
      "especially": 5215,
      "jdbc": 5216,
      "licens": 5217,
      "lobally": 5218,
      "DocumentDB": 5219,
      "copied": 5220,
      "popul": 5221,
      "Databases": 5222,
      "hu": 5223,
      "isolated": 5224,
      "Conditional": 5225,
      "connects": 5226,
      "B2C": 5227,
      "bc": 5228,
      "------------": 5229,
      "catch": 5230,
      "Architecture": 5231,
      "discovery": 5232,
      "Helm": 5233,
      "aditional": 5234,
      "Provisioning": 5235,
      "references": 5236,
      "Root": 5237,
      "Compliance": 5238,
      "Operator": 5239,
      "insert": 5240,
      "monstr": 5241,
      "claims": 5242,
      "Deny": 5243,
      "({": 5244,
      "risks": 5245,
      "subscri": 5246,
      "sequent": 5247,
      "redirect": 5248,
      "ond": 5249,
      "Static": 5250,
      "bottom": 5251,
      "((": 5252,
      "respective": 5253,
      "folders": 5254,
      "Retrieve": 5255,
      "distinct": 5256,
      "izer": 5257,
      "wizard": 5258,
      "thread": 5259,
      "Body": 5260,
      "rency": 5261,
      "trend": 5262,
      "prerequisites": 5263,
      "Credentials": 5264,
      "Guest": 5265,
      "consumer": 5266,
      "Please": 5267,
      "Publisher": 5268,
      "len": 5269,
      "anom": 5270,
      "AzNetwork": 5271,
      "specifying": 5272,
      "HO": 5273,
      "seeWhat": 5274,
      "YOUR_": 5275,
      "North": 5276,
      "rehensive": 5277,
      "Duration": 5278,
      "Free": 5279,
      "kee": 5280,
      "Tracking": 5281,
      "scl": 5282,
      "constraints": 5283,
      "Routing": 5284,
      "Live": 5285,
      "uro": 5286,
      "AND": 5287,
      "authorize": 5288,
      "ABASE": 5289,
      "Rol": 5290,
      "Family": 5291,
      "Assess": 5292,
      "Replication": 5293,
      "background": 5294,
      "A_": 5295,
      "USE": 5296,
      "procedures": 5297,
      "Failure": 5298,
      "resholds": 5299,
      "ECRET": 5300,
      "helm": 5301,
      "aggregation": 5302,
      "Intro": 5303,
      "virtualNetworks": 5304,
      "your_": 5305,
      "reflect": 5306,
      "Ano": 5307,
      "SIT": 5308,
      "Sphere": 5309,
      "Non": 5310,
      "ains": 5311,
      "throttling": 5312,
      "MachineLearningServices": 5313,
      "Most": 5314,
      "sessions": 5315,
      "////////////////": 5316,
      "urope": 5317,
      "integrity": 5318,
      "grafana": 5319,
      "demonstr": 5320,
      "adapt": 5321,
      "create_": 5322,
      "Keys": 5323,
      "anguages": 5324,
      "optimal": 5325,
      "maven": 5326,
      "ector": 5327,
      "storageaccount": 5328,
      "Hyper": 5329,
      "Depending": 5330,
      "watch": 5331,
      "relative": 5332,
      "stit": 5333,
      "4444": 5334,
      "Fiber": 5335,
      "regardless": 5336,
      "depth": 5337,
      "Concept": 5338,
      "restored": 5339,
      "scaler": 5340,
      "hn1": 5341,
      "Try": 5342,
      "Schema": 5343,
      "Resol": 5344,
      "enhance": 5345,
      "executed": 5346,
      "PE": 5347,
      "m_": 5348,
      "inte": 5349,
      "sty": 5350,
      ">>": 5351,
      "except": 5352,
      "xxxxxxxxxxxx": 5353,
      "aris": 5354,
      "cel": 5355,
      "Inbound": 5356,
      "Unit": 5357,
      "dimensions": 5358,
      "Replic": 5359,
      "privileged": 5360,
      "seeHow": 5361,
      "performing": 5362,
      "sensor": 5363,
      "Ca": 5364,
      "Kafka": 5365,
      "osing": 5366,
      "Leave": 5367,
      "aggregated": 5368,
      "assig": 5369,
      "servicebus": 5370,
      "efficiency": 5371,
      "RHEL": 5372,
      "300": 5373,
      "]\",": 5374,
      "EventHub": 5375,
      "flux": 5376,
      "aware": 5377,
      "globally": 5378,
      "Generate": 5379,
      "charged": 5380,
      "oracle": 5381,
      "acc": 5382,
      "Sep": 5383,
      "berty": 5384,
      "WebLogic": 5385,
      "4f": 5386,
      "yond": 5387,
      "investig": 5388,
      "updating": 5389,
      "Nic": 5390,
      "cale": 5391,
      "76": 5392,
      "cores": 5393,
      "notebooks": 5394,
      "peat": 5395,
      "indust": 5396,
      "Continue": 5397,
      "differences": 5398,
      "Prep": 5399,
      "reset": 5400,
      "arily": 5401,
      "chall": 5402,
      "concurrent": 5403,
      "ContainerService": 5404,
      "purge": 5405,
      "Retry": 5406,
      "58": 5407,
      "Execution": 5408,
      "taining": 5409,
      "12345": 5410,
      "facil": 5411,
      "MyResourceGroup": 5412,
      "Issu": 5413,
      "_SERV": 5414,
      "512": 5415,
      "currency": 5416,
      "_1": 5417,
      "cf": 5418,
      "consume": 5419,
      "autoscaling": 5420,
      "Flow": 5421,
      "restricted": 5422,
      "microservices": 5423,
      "*\"": 5424,
      "Cor": 5425,
      "had": 5426,
      "ards": 5427,
      "behind": 5428,
      "decision": 5429,
      "Evaluate": 5430,
      "older": 5431,
      "Maximum": 5432,
      "808": 5433,
      "frame": 5434,
      "concat": 5435,
      "indexing": 5436,
      "bindings": 5437,
      "KEN": 5438,
      "Sales": 5439,
      "modern": 5440,
      "Person": 5441,
      "Deli": 5442,
      "optionally": 5443,
      "comprehensive": 5444,
      "describe": 5445,
      "suring": 5446,
      "ym": 5447,
      "SNAT": 5448,
      "_token": 5449,
      "Restr": 5450,
      "approved": 5451,
      "TOKEN": 5452,
      "mgmt": 5453,
      "SubscriptionId": 5454,
      "indicate": 5455,
      "AUT": 5456,
      "MO": 5457,
      "ConnectionString": 5458,
      "SE": 5459,
      "asset": 5460,
      "deploys": 5461,
      "federated": 5462,
      "mysql": 5463,
      "54": 5464,
      "corporate": 5465,
      "Ku": 5466,
      "languages": 5467,
      "transl": 5468,
      "SY": 5469,
      "toolbar": 5470,
      "56": 5471,
      "moving": 5472,
      "MP": 5473,
      "assum": 5474,
      "vso": 5475,
      "AzureRM": 5476,
      "Engine": 5477,
      "routed": 5478,
      "matching": 5479,
      "perman": 5480,
      "platforms": 5481,
      "Minutes": 5482,
      "efficiently": 5483,
      "rence": 5484,
      "Retention": 5485,
      "limin": 5486,
      "ACL": 5487,
      "Primary": 5488,
      "vulnerabilities": 5489,
      "cn": 5490,
      "effectively": 5491,
      "WORD": 5492,
      "arguments": 5493,
      "gs": 5494,
      "theNew": 5495,
      "nee": 5496,
      "Cross": 5497,
      "factory": 5498,
      "ips": 5499,
      "apis": 5500,
      "ACCESS": 5501,
      "AA": 5502,
      "LB": 5503,
      "": 5504,
      "Communic": 5505,
      "sequence": 5506,
      "merge": 5507,
      "xim": 5508,
      "beyond": 5509,
      "company": 5510,
      "associate": 5511,
      "visualization": 5512,
      "amless": 5513,
      "Working": 5514,
      "iring": 5515,
      "suggest": 5516,
      "assignee": 5517,
      "ws": 5518,
      "explorer": 5519,
      "Instru": 5520,
      "Although": 5521,
      "Username": 5522,
      "interfaces": 5523,
      "CosmosDB": 5524,
      "Complete": 5525,
      "****************": 5526,
      "fit": 5527,
      "loud": 5528,
      "unexpected": 5529,
      "Sk": 5530,
      "cip": 5531,
      "notes": 5532,
      "})": 5533,
      "lege": 5534,
      "sharing": 5535,
      "prefer": 5536,
      "NW1": 5537,
      "mapped": 5538,
      "ACE": 5539,
      "Software": 5540,
      "Force": 5541,
      "knowledge": 5542,
      "Report": 5543,
      "administrative": 5544,
      "warning": 5545,
      "Move": 5546,
      "Take": 5547,
      "vilege": 5548,
      "Since": 5549,
      "cast": 5550,
      "wls": 5551,
      "startup": 5552,
      "Additionally": 5553,
      "attempts": 5554,
      "ignore": 5555,
      "Self": 5556,
      "ees": 5557,
      "Stor": 5558,
      "registries": 5559,
      "mq": 5560,
      "slots": 5561,
      "Expand": 5562,
      "refers": 5563,
      "Return": 5564,
      "logged": 5565,
      "selector": 5566,
      "annotation": 5567,
      "KQL": 5568,
      "lose": 5569,
      "IGN": 5570,
      "ming": 5571,
      "OpenShift": 5572,
      "downloaded": 5573,
      "WriteLine": 5574,
      "96": 5575,
      "ATION": 5576,
      "OF": 5577,
      "idence": 5578,
      "Interfaces": 5579,
      "alternative": 5580,
      "databaseAccounts": 5581,
      "ideal": 5582,
      "StartTime": 5583,
      "73": 5584,
      "": 5585,
      "TABLE": 5586,
      "nested": 5587,
      "overhead": 5588,
      "experiences": 5589,
      "happen": 5590,
      "VA": 5591,
      "leave": 5592,
      "fixed": 5593,
      "remains": 5594,
      "synchronization": 5595,
      "symbolic": 5596,
      "compare": 5597,
      "SOFT": 5598,
      "blocks": 5599,
      "green": 5600,
      "aC": 5601,
      "MIN": 5602,
      "quant": 5603,
      "partitioning": 5604,
      "jor": 5605,
      "imeter": 5606,
      "Launch": 5607,
      "missing": 5608,
      "DBC": 5609,
      "Attribute": 5610,
      "dfs": 5611,
      "performs": 5612,
      "hubs": 5613,
      "ReadWrite": 5614,
      "prompts": 5615,
      "dn": 5616,
      "Driver": 5617,
      "grow": 5618,
      "dynam": 5619,
      "ses": 5620,
      "ensuring": 5621,
      "outages": 5622,
      "secured": 5623,
      "hot": 5624,
      "_HN": 5625,
      "sink": 5626,
      "72": 5627,
      "bership": 5628,
      "succeed": 5629,
      "ximity": 5630,
      "mob": 5631,
      "imize": 5632,
      "Ends": 5633,
      "compatibility": 5634,
      "subset": 5635,
      "Scenari": 5636,
      "thresholds": 5637,
      "://{": 5638,
      "Critical": 5639,
      "exposed": 5640,
      "Inventory": 5641,
      "replicate": 5642,
      "RA": 5643,
      "tempt": 5644,
      "ids": 5645,
      "subsequent": 5646,
      "Folder": 5647,
      "deliver": 5648,
      "rsc_sap": 5649,
      "AAD": 5650,
      "_STRING": 5651,
      "oauth": 5652,
      "uplic": 5653,
      "NAL": 5654,
      "STOR": 5655,
      "authenticated": 5656,
      "ASSWORD": 5657,
      "estim": 5658,
      "Repos": 5659,
      "installing": 5660,
      "Page": 5661,
      "Trace": 5662,
      "letter": 5663,
      "driven": 5664,
      "\\\",": 5665,
      "ARCH": 5666,
      "destin": 5667,
      "Cli": 5668,
      "Ids": 5669,
      "applicationinsights": 5670,
      "goes": 5671,
      "EndsWith": 5672,
      "iod": 5673,
      "eval": 5674,
      "Order": 5675,
      "rotation": 5676,
      "_ip": 5677,
      "tmp": 5678,
      "aches": 5679,
      "Dashboard": 5680,
      "Specifies": 5681,
      "abbit": 5682,
      "throughout": 5683,
      "Push": 5684,
      "chain": 5685,
      "generates": 5686,
      "writing": 5687,
      "Updates": 5688,
      "retrieved": 5689,
      "Browse": 5690,
      "DA": 5691,
      "Length": 5692,
      "nil": 5693,
      "GPT": 5694,
      "initiative": 5695,
      "_time": 5696,
      "cus": 5697,
      "website": 5698,
      ":$": 5699,
      "aver": 5700,
      "pill": 5701,
      "db_": 5702,
      "ils": 5703,
      "completions": 5704,
      "_network": 5705,
      "disruption": 5706,
      "Optionally": 5707,
      "Place": 5708,
      "UTC": 5709,
      "Timestamp": 5710,
      "zonal": 5711,
      "READ": 5712,
      "privatelink": 5713,
      "generally": 5714,
      "architectures": 5715,
      "traditional": 5716,
      "deleting": 5717,
      "fixes": 5718,
      "organizational": 5719,
      "implemented": 5720,
      "MSI": 5721,
      "decide": 5722,
      "VAL": 5723,
      "wa": 5724,
      "functional": 5725,
      "shouldn": 5726,
      "Dynamic": 5727,
      "backlog": 5728,
      "elements": 5729,
      "IBM": 5730,
      "wildcard": 5731,
      "cool": 5732,
      "answer": 5733,
      "JO": 5734,
      "bring": 5735,
      "Gen2": 5736,
      "asks": 5737,
      "());": 5738,
      "ASSIGN": 5739,
      "balance": 5740,
      "'$(": 5741,
      "andAzure": 5742,
      "proceed": 5743,
      "Cores": 5744,
      "respond": 5745,
      "contributor": 5746,
      "ends": 5747,
      "Delta": 5748,
      "umb": 5749,
      "msg": 5750,
      "Period": 5751,
      "erting": 5752,
      "seamless": 5753,
      "Hana": 5754,
      "centralus": 5755,
      "Impro": 5756,
      "JB": 5757,
      "Plugin": 5758,
      "achiev": 5759,
      "34": 5760,
      "Ker": 5761,
      "MI": 5762,
      "concer": 5763,
      "released": 5764,
      "Percentage": 5765,
      "Demo": 5766,
      "maintained": 5767,
      "1d": 5768,
      "52": 5769,
      "2015": 5770,
      "Disabled": 5771,
      "AzKeyVault": 5772,
      "transit": 5773,
      "deploymentTemplate": 5774,
      "partners": 5775,
      "ALTER": 5776,
      ">=": 5777,
      "])": 5778,
      "lab": 5779,
      "bypass": 5780,
      "databaseName": 5781,
      "recommends": 5782,
      "issuer": 5783,
      "pillar": 5784,
      "launch": 5785,
      "LOCATION": 5786,
      "ane": 5787,
      "onym": 5788,
      "metimes": 5789,
      "ORT": 5790,
      ">,<": 5791,
      "enroll": 5792,
      "Lay": 5793,
      "maps": 5794,
      "migrating": 5795,
      "relational": 5796,
      "savings": 5797,
      "ApplicationGateway": 5798,
      "{},": 5799,
      "simplify": 5800,
      "predict": 5801,
      "_HN1_": 5802,
      "sts": 5803,
      "Associ": 5804,
      "warehouse": 5805,
      "South": 5806,
      "vCPUs": 5807,
      "getting": 5808,
      "Temp": 5809,
      "hooks": 5810,
      "AzStorageAccount": 5811,
      "charts": 5812,
      "Validate": 5813,
      "eness": 5814,
      "air": 5815,
      "remediation": 5816,
      "_HO": 5817,
      "facilit": 5818,
      "GRS": 5819,
      "uploaded": 5820,
      "conn": 5821,
      "blocked": 5822,
      "compared": 5823,
      "4b": 5824,
      "Integrate": 5825,
      "mobile": 5826,
      "DW": 5827,
      "beta": 5828,
      "Optimization": 5829,
      "modes": 5830,
      "jection": 5831,
      "Protect": 5832,
      "AZURE_POSTGRESQL_": 5833,
      "did": 5834,
      "ServicePrincipal": 5835,
      "Spot": 5836,
      "theGet": 5837,
      "Debug": 5838,
      "Avoid": 5839,
      "509": 5840,
      "FTP": 5841,
      "codes": 5842,
      "ServiceName": 5843,
      "URLs": 5844,
      "Mount": 5845,
      "perscale": 5846,
      "mitigate": 5847,
      "];": 5848,
      "Inf": 5849,
      "ipped": 5850,
      "ASSIGNED": 5851,
      "_model": 5852,
      "acqu": 5853,
      "requested": 5854,
      "trade": 5855,
      "Delivery": 5856,
      "oop": 5857,
      "vmImage": 5858,
      "Autoscale": 5859,
      "snippet": 5860,
      "Logging": 5861,
      "minimal": 5862,
      "VC": 5863,
      "convers": 5864,
      "BGP": 5865,
      "goals": 5866,
      "succeeded": 5867,
      "LE_": 5868,
      "ToDo": 5869,
      "looks": 5870,
      "unified": 5871,
      "marks": 5872,
      "ingested": 5873,
      "attempt": 5874,
      "convent": 5875,
      "hierarchy": 5876,
      "_path": 5877,
      "independent": 5878,
      "semb": 5879,
      "addr": 5880,
      "NotEndsWith": 5881,
      "theBasicstab": 5882,
      "Kit": 5883,
      "aspect": 5884,
      "Medium": 5885,
      "ama": 5886,
      "WEBSIT": 5887,
      "Entity": 5888,
      "privileges": 5889,
      "Ingestion": 5890,
      "UN": 5891,
      "backed": 5892,
      "collaboration": 5893,
      "_config": 5894,
      "fill": 5895,
      "ival": 5896,
      "toAzure": 5897,
      "identified": 5898,
      "Agreement": 5899,
      "prevents": 5900,
      "Training": 5901,
      "###": 5902,
      "swap": 5903,
      "?\"},": 5904,
      "2F": 5905,
      "Refer": 5906,
      "imal": 5907,
      "understanding": 5908,
      "blocking": 5909,
      "SERVIC": 5910,
      "accuracy": 5911,
      "VAULT": 5912,
      "belong": 5913,
      "basis": 5914,
      "ogle": 5915,
      "allocate": 5916,
      "osen": 5917,
      "guidelines": 5918,
      "ISO": 5919,
      "jsonfile": 5920,
      "Hyperscale": 5921,
      "established": 5922,
      "onymous": 5923,
      "GUID": 5924,
      "tick": 5925,
      "unnecessary": 5926,
      "RoleAssignment": 5927,
      "ie": 5928,
      "mechanisms": 5929,
      "bill": 5930,
      "iki": 5931,
      ">/<": 5932,
      "sion": 5933,
      "Frequ": 5934,
      "chosen": 5935,
      "CSV": 5936,
      "Lib": 5937,
      "]:": 5938,
      "mi": 5939,
      "Prepare": 5940,
      "Changes": 5941,
      "Win": 5942,
      "Datase": 5943,
      "discus": 5944,
      "msdocs": 5945,
      "continues": 5946,
      "typical": 5947,
      "question": 5948,
      "DF": 5949,
      "maintaining": 5950,
      "newer": 5951,
      "assignableScopes": 5952,
      "microsoftonline": 5953,
      "media": 5954,
      "separately": 5955,
      "scanning": 5956,
      "elimin": 5957,
      "suffix": 5958,
      "Array": 5959,
      "');": 5960,
      "MQ": 5961,
      "Prompt": 5962,
      "illust": 5963,
      "monthly": 5964,
      "arison": 5965,
      "convert": 5966,
      "exit": 5967,
      "Pools": 5968,
      "ssl": 5969,
      "PATCH": 5970,
      "VirtualMachine": 5971,
      "demands": 5972,
      "vulnerability": 5973,
      "AccountName": 5974,
      "CONNECTION_STRING": 5975,
      "Used": 5976,
      "color": 5977,
      "IGHT": 5978,
      "Bound": 5979,
      "_count": 5980,
      "Peering": 5981,
      "deprecated": 5982,
      "VHD": 5983,
      "illa": 5984,
      "SaaS": 5985,
      "Therefore": 5986,
      "Br": 5987,
      "receives": 5988,
      "separated": 5989,
      "enhanced": 5990,
      "operators": 5991,
      "DBMS": 5992,
      "rw": 5993,
      "inline": 5994,
      "Unity": 5995,
      "KB": 5996,
      "otherwise": 5997,
      "Cal": 5998,
      "Vector": 5999,
      "conver": 6000,
      "Apple": 6001,
      "LES": 6002,
      "Europe": 6003,
      "itored": 6004,
      "wal": 6005,
      "actively": 6006,
      "experiment": 6007,
      "azurecr": 6008,
      "VaultName": 6009,
      "XXXXXXXX": 6010,
      "Dependency": 6011,
      "element": 6012,
      "useAzure": 6013,
      "PATH": 6014,
      "5f": 6015,
      "looking": 6016,
      "Introduction": 6017,
      "scales": 6018,
      "amounts": 6019,
      "Boards": 6020,
      "Certificates": 6021,
      "observability": 6022,
      "pairs": 6023,
      "orical": 6024,
      "Meter": 6025,
      "focus": 6026,
      "79": 6027,
      "SLO": 6028,
      "seeConfigure": 6029,
      "ENV": 6030,
      "Mob": 6031,
      "Development": 6032,
      "append": 6033,
      "RecoveryServices": 6034,
      "Circuit": 6035,
      "IaC": 6036,
      "pet": 6037,
      "rabbit": 6038,
      "ContainerRegistry": 6039,
      "malicious": 6040,
      "alerting": 6041,
      "community": 6042,
      "Tech": 6043,
      "Let": 6044,
      "Pull": 6045,
      "promo": 6046,
      "scoring": 6047,
      "sparent": 6048,
      "handles": 6049,
      "Layer": 6050,
      "avg": 6051,
      "istic": 6052,
      "detail": 6053,
      "SAPHana": 6054,
      "MIC": 6055,
      "InMinutes": 6056,
      "Datacenter": 6057,
      "arkus": 6058,
      "probes": 6059,
      "Author": 6060,
      "statements": 6061,
      "Commit": 6062,
      ")'": 6063,
      "abc": 6064,
      "msscl": 6065,
      "Benef": 6066,
      "ordin": 6067,
      "endor": 6068,
      "formats": 6069,
      "auditing": 6070,
      "Ms": 6071,
      "alone": 6072,
      "unhealthy": 6073,
      "IA": 6074,
      "renew": 6075,
      "forced": 6076,
      "transformation": 6077,
      "CSI": 6078,
      "taken": 6079,
      "decl": 6080,
      "predic": 6081,
      "Dim": 6082,
      "ha": 6083,
      "rely": 6084,
      "\"/\"": 6085,
      "lookup": 6086,
      "].[": 6087,
      "qualified": 6088,
      "turbo": 6089,
      "127": 6090,
      "rome": 6091,
      "subscription_id": 6092,
      "butils": 6093,
      "xxxxx": 6094,
      "php": 6095,
      "expires": 6096,
      "WEBSITE_": 6097,
      "independ": 6098,
      "AzureOpenAI": 6099,
      "144": 6100,
      "rabbitmq": 6101,
      "]::": 6102,
      "Media": 6103,
      "offic": 6104,
      "Restart": 6105,
      "DisplayName": 6106,
      "intent": 6107,
      "Quot": 6108,
      "hous": 6109,
      "VMName": 6110,
      "grap": 6111,
      "Teams": 6112,
      "/*.": 6113,
      "TTL": 6114,
      "datas": 6115,
      "resourceName": 6116,
      "notActions": 6117,
      "EAP": 6118,
      "Trac": 6119,
      "ConnectionType": 6120,
      "StatusCode": 6121,
      "Bind": 6122,
      "GO": 6123,
      "IV": 6124,
      "Connectivity": 6125,
      "apim": 6126,
      "migrated": 6127,
      "paired": 6128,
      "Transaction": 6129,
      "dbutils": 6130,
      "enters": 6131,
      "Manual": 6132,
      "Argu": 6133,
      "collects": 6134,
      "[{": 6135,
      "pom": 6136,
      "Look": 6137,
      "Vaults": 6138,
      "ORD": 6139,
      "encoded": 6140,
      "onboarding": 6141,
      "PL": 6142,
      "appInsights": 6143,
      "loading": 6144,
      "privilege": 6145,
      "a6": 6146,
      "transient": 6147,
      "programmat": 6148,
      "Infrastructure": 6149,
      "Dif": 6150,
      "exclus": 6151,
      "seeGet": 6152,
      "azureMonitor": 6153,
      "major": 6154,
      "InstanceName": 6155,
      "Press": 6156,
      "Var": 6157,
      "benchmark": 6158,
      "independently": 6159,
      "perimeter": 6160,
      "networkInterfaces": 6161,
      "PT1": 6162,
      "functionAppLinux": 6163,
      "Record": 6164,
      "}/{": 6165,
      "causes": 6166,
      "Similar": 6167,
      "Vnet": 6168,
      "coding": 6169,
      "notation": 6170,
      "asc": 6171,
      "involves": 6172,
      "8080": 6173,
      "EA": 6174,
      "collections": 6175,
      "Modify": 6176,
      "viol": 6177,
      "_DAT": 6178,
      "invoke": 6179,
      "iqu": 6180,
      "csi": 6181,
      "mvn": 6182,
      "70": 6183,
      "reducing": 6184,
      "INSIGHT": 6185,
      "ggle": 6186,
      "graphy": 6187,
      "Chrome": 6188,
      ".\"},": 6189,
      "responsibility": 6190,
      "destinations": 6191,
      ">\";": 6192,
      "priorit": 6193,
      "zilla": 6194,
      "states": 6195,
      "AzResource": 6196,
      "finished": 6197,
      "haven": 6198,
      "Mozilla": 6199,
      "FC": 6200,
      "NetWe": 6201,
      "NetWeaver": 6202,
      "sarc": 6203,
      "inform": 6204,
      "11111111": 6205,
      "sarcastic": 6206,
      "TU": 6207,
      "annel": 6208,
      "sat": 6209,
      "notDataActions": 6210,
      "Workflow": 6211,
      "posture": 6212,
      "409": 6213,
      "Watch": 6214,
      "iver": 6215,
      "VALU": 6216,
      "vs": 6217,
      "selectDelete": 6218,
      "2012": 6219,
      "Space": 6220,
      "never": 6221,
      "sha": 6222,
      "distribute": 6223,
      "meets": 6224,
      "MICRO": 6225,
      "4c": 6226,
      "ps1": 6227,
      "resulting": 6228,
      "cheduler": 6229,
      "4o": 6230,
      "Slot": 6231,
      "regulatory": 6232,
      "meral": 6233,
      "}\":": 6234,
      "illi": 6235,
      "Sever": 6236,
      "designing": 6237,
      "Excellence": 6238,
      "Extended": 6239,
      "argument": 6240,
      "effort": 6241,
      "Show": 6242,
      "WebAppkind": 6243,
      "webAppContainer": 6244,
      "bf": 6245,
      "gw": 6246,
      "challeng": 6247,
      "MICROSOFT": 6248,
      "DEL": 6249,
      "Testing": 6250,
      "incremental": 6251,
      "Streaming": 6252,
      "referenced": 6253,
      "pcs": 6254,
      "peered": 6255,
      "tuned": 6256,
      "mspVM": 6257,
      "dynamically": 6258,
      "datac": 6259,
      "Intern": 6260,
      "Frame": 6261,
      "checkbox": 6262,
      "INSIGHTS_": 6263,
      "').": 6264,
      "Sa": 6265,
      "functionAppContainer": 6266,
      "59": 6267,
      "": 6268,
      "umer": 6269,
      "calling": 6270,
      "autoscaler": 6271,
      "hemeral": 6272,
      "GroupId": 6273,
      "600": 6274,
      "riend": 6275,
      "passwordless": 6276,
      "3_": 6277,
      "GA": 6278,
      "dddd": 6279,
      "Scenario": 6280,
      "clouds": 6281,
      "rg_name": 6282,
      "orAzure": 6283,
      "dataActions": 6284,
      "emon": 6285,
      "Foundation": 6286,
      "HPC": 6287,
      "industry": 6288,
      "WORK": 6289,
      "vance": 6290,
      "oun": 6291,
      "Identifier": 6292,
      "chatbot": 6293,
      "Dig": 6294,
      "past": 6295,
      "AzureDiagnostics": 6296,
      "loads": 6297,
      "or_": 6298,
      "GroupName": 6299,
      "addressPrefix": 6300,
      "ClientId": 6301,
      "consumed": 6302,
      "Header": 6303,
      "HN": 6304,
      "highest": 6305,
      "optimizing": 6306,
      "programming": 6307,
      "DATABASE": 6308,
      "resid": 6309,
      "discover": 6310,
      "comprom": 6311,
      "ownership": 6312,
      "0100": 6313,
      "prepare": 6314,
      "SECRET": 6315,
      "ffer": 6316,
      "offering": 6317,
      "ople": 6318,
      "offline": 6319,
      "materialized": 6320,
      "HDD": 6321,
      "oauth2": 6322,
      "guard": 6323,
      "validated": 6324,
      "Office": 6325,
      "vileged": 6326,
      "/',": 6327,
      "symbolicname": 6328,
      "MY_": 6329,
      "requiring": 6330,
      "ADD": 6331,
      "kernel": 6332,
      "CR": 6333,
      "CNAME": 6334,
      "RAG": 6335,
      "Latency": 6336,
      "................................": 6337,
      "_NW1_ASCS": 6338,
      "_LRS": 6339,
      "membership": 6340,
      "topics": 6341,
      "Why": 6342,
      "ancial": 6343,
      "Contact": 6344,
      "51": 6345,
      "controll": 6346,
      "encing": 6347,
      "Kube": 6348,
      "compose": 6349,
      "REGI": 6350,
      ".\\": 6351,
      "foreach": 6352,
      "AES": 6353,
      "ressed": 6354,
      "excluded": 6355,
      "Reason": 6356,
      "ServerName": 6357,
      "potentially": 6358,
      "ively": 6359,
      "*)": 6360,
      "ann": 6361,
      "ReadOnly": 6362,
      "Listener": 6363,
      "Latest": 6364,
      "asynchronous": 6365,
      "Dataset": 6366,
      "gate": 6367,
      "resource_id": 6368,
      "cko": 6369,
      "retries": 6370,
      "NW1_": 6371,
      "Gecko": 6372,
      "Pol": 6373,
      "however": 6374,
      "enrollment": 6375,
      "\"));": 6376,
      "expressions": 6377,
      "84": 6378,
      "idden": 6379,
      "continuously": 6380,
      "}]}": 6381,
      "tracer": 6382,
      "\"${": 6383,
      "intelligence": 6384,
      "rix": 6385,
      "Reservation": 6386,
      "segment": 6387,
      "ina": 6388,
      "Flux": 6389,
      "monitored": 6390,
      "WorkspaceResourceId": 6391,
      "~~~~": 6392,
      "_string": 6393,
      "Another": 6394,
      "\"@": 6395,
      "Pay": 6396,
      "Tasks": 6397,
      "ln": 6398,
      "adm": 6399,
      "RED": 6400,
      "rary": 6401,
      ".$": 6402,
      "vCPU": 6403,
      "databricks": 6404,
      "Iter": 6405,
      "Mis": 6406,
      "aos": 6407,
      "Fix": 6408,
      "Restrict": 6409,
      "assumes": 6410,
      "R2": 6411,
      "ilient": 6412,
      "Customers": 6413,
      "springframework": 6414,
      "proximity": 6415,
      "ADMIN": 6416,
      "factual": 6417,
      "erly": 6418,
      "ObjectId": 6419,
      "improvements": 6420,
      "SUSE": 6421,
      "MBps": 6422,
      "ivalent": 6423,
      "passwords": 6424,
      "improved": 6425,
      "Isol": 6426,
      "Ne": 6427,
      "toler": 6428,
      "nels": 6429,
      "Features": 6430,
      "plus": 6431,
      "logout": 6432,
      "Production": 6433,
      ">;": 6434,
      "difference": 6435,
      "fx": 6436,
      "izon": 6437,
      "viewing": 6438,
      "mystorageaccount": 6439,
      "estimate": 6440,
      "predefined": 6441,
      "client_id": 6442,
      "Contributorrole": 6443,
      "AZURE_OPENAI_ENDPOINT": 6444,
      "ershell": 6445,
      "usingAzure": 6446,
      "minor": 6447,
      "versioning": 6448,
      "Ready": 6449,
      "ALL": 6450,
      "APP_NAME": 6451,
      "Variables": 6452,
      "processors": 6453,
      "debugging": 6454,
      "TFS": 6455,
      "_value": 6456,
      "Troubleshooting": 6457,
      "HDB03": 6458,
      "3a": 6459,
      "irement": 6460,
      "azureSubscription": 6461,
      "Subcategory": 6462,
      "STORAGE_": 6463,
      "VNET": 6464,
      "please": 6465,
      "Ingress": 6466,
      "PortRange": 6467,
      "tune": 6468,
      "alf": 6469,
      "audi": 6470,
      "Selector": 6471,
      "commitment": 6472,
      "'))]\"": 6473,
      "gain": 6474,
      "mid": 6475,
      "tolower": 6476,
      "layers": 6477,
      "Attributes": 6478,
      "screensh": 6479,
      "JBoss": 6480,
      "dm_": 6481,
      "sapmnt": 6482,
      "Organizational": 6483,
      "uid": 6484,
      "depart": 6485,
      "modeling": 6486,
      "Summary": 6487,
      "DK": 6488,
      "FF": 6489,
      "fficiency": 6490,
      "crypto": 6491,
      "dump": 6492,
      "WorkingDirectory": 6493,
      "Indi": 6494,
      "rat": 6495,
      "Allocation": 6496,
      "bbbbbbbb": 6497,
      "employees": 6498,
      "Tables": 6499,
      "duplic": 6500,
      "comparison": 6501,
      "vmSize": 6502,
      "81": 6503,
      "SLES": 6504,
      "AzSql": 6505,
      "Branch": 6506,
      "));": 6507,
      "bursting": 6508,
      "yourself": 6509,
      "myApp": 6510,
      "Validation": 6511,
      "Confidential": 6512,
      "seeManage": 6513,
      "roleAssignments": 6514,
      "numer": 6515,
      "defining": 6516,
      "combined": 6517,
      "pending": 6518,
      "Box": 6519,
      "Efficiency": 6520,
      "controlled": 6521,
      "\")]": 6522,
      "westus2": 6523,
      "oup": 6524,
      "HttpRequest": 6525,
      "Transfer": 6526,
      "Existing": 6527,
      "CT": 6528,
      "ClusterName": 6529,
      "PublicIpAddress": 6530,
      "algorithm": 6531,
      "anomal": 6532,
      "lice": 6533,
      "among": 6534,
      "Perf": 6535,
      "FilePath": 6536,
      "postgresql": 6537,
      "ba": 6538,
      "corner": 6539,
      "World": 6540,
      "patching": 6541,
      "affects": 6542,
      "tfplan": 6543,
      "HN1": 6544,
      "4d": 6545,
      "Match": 6546,
      "kes": 6547,
      "equivalent": 6548,
      "Lif": 6549,
      "reject": 6550,
      "sus": 6551,
      "concurrency": 6552,
      "\":[": 6553,
      "expose": 6554,
      "transition": 6555,
      "consumers": 6556,
      "rupt": 6557,
      "APPLIES": 6558,
      "APPLICATION": 6559,
      "semantic": 6560,
      "Average": 6561,
      "mcr": 6562,
      "sci": 6563,
      "Gen5": 6564,
      "4a": 6565,
      "Every": 6566,
      "isk": 6567,
      "decry": 6568,
      "copies": 6569,
      "fip": 6570,
      "seeVirtual": 6571,
      "accurate": 6572,
      "Fo": 6573,
      "SET": 6574,
      "signal": 6575,
      "OperationName": 6576,
      "storage_account": 6577,
      "iot": 6578,
      "attestation": 6579,
      "packet": 6580,
      "provisioningState": 6581,
      "unauthorized": 6582,
      "hop": 6583,
      "Starting": 6584,
      "_job": 6585,
      "Cry": 6586,
      "Runaz": 6587,
      "AZURE_SQL": 6588,
      "UDR": 6589,
      "vacy": 6590,
      "thekubectl": 6591,
      "API_KEY": 6592,
      "privateEndpoint": 6593,
      "choosing": 6594,
      "Safari": 6595,
      "Exchange": 6596,
      "68": 6597,
      "fw": 6598,
      "multic": 6599,
      "Mobile": 6600,
      "inks": 6601,
      "selectOK": 6602,
      "listen": 6603,
      "querying": 6604,
      "Mapping": 6605,
      "Automate": 6606,
      "usingaz": 6607,
      "placeholder": 6608,
      "supporting": 6609,
      "orizon": 6610,
      "resilient": 6611,
      "redis": 6612,
      "chedules": 6613,
      "LOC": 6614,
      "chunk": 6615,
      "EE": 6616,
      "owners": 6617,
      "ircuits": 6618,
      "2f": 6619,
      "immut": 6620,
      "publicIPAddress": 6621,
      "counts": 6622,
      "user_": 6623,
      "Supp": 6624,
      "reservations": 6625,
      "historical": 6626,
      "deletes": 6627,
      "maker": 6628,
      "significantly": 6629,
      "BuiltIn": 6630,
      "120": 6631,
      "cut": 6632,
      "reached": 6633,
      "thub": 6634,
      "derate": 6635,
      "integrates": 6636,
      "kv": 6637,
      "istent": 6638,
      "Does": 6639,
      "words": 6640,
      "LOG": 6641,
      "Score": 6642,
      "mention": 6643,
      "spending": 6644,
      "TYPE": 6645,
      "c_": 6646,
      "dbo": 6647,
      "tember": 6648,
      "specifically": 6649,
      "172": 6650,
      "Redund": 6651,
      "DOM": 6652,
      "September": 6653,
      "riendly": 6654,
      "webAppLinux": 6655,
      "Internal": 6656,
      "symbol": 6657,
      "inherited": 6658,
      "wish": 6659,
      "DefaultWorkingDirectory": 6660,
      "iteration": 6661,
      "guaranteed": 6662,
      "accident": 6663,
      "cla": 6664,
      "usercontent": 6665,
      "correlation": 6666,
      "githubusercontent": 6667,
      "powerful": 6668,
      "div": 6669,
      "pu": 6670,
      "Top": 6671,
      "guides": 6672,
      "keeper": 6673,
      ")),": 6674,
      ":{": 6675,
      "regularly": 6676,
      "anonymous": 6677,
      "checked": 6678,
      "Orchestr": 6679,
      "aker": 6680,
      "client_": 6681,
      "Notification": 6682,
      "ScaleSets": 6683,
      "fall": 6684,
      "AZ_": 6685,
      "telligent": 6686,
      "vCores": 6687,
      "expos": 6688,
      "counters": 6689,
      "browse": 6690,
      "combine": 6691,
      "Storm": 6692,
      "fmt": 6693,
      "assigning": 6694,
      "varch": 6695,
      "reboot": 6696,
      "clusterName": 6697,
      "AZURE_SQL_": 6698,
      "containerized": 6699,
      "Filesystem": 6700,
      "applying": 6701,
      "MM": 6702,
      "Automated": 6703,
      "83": 6704,
      "Done": 6705,
      "scient": 6706,
      "Privileged": 6707,
      "visible": 6708,
      "LTS": 6709,
      "aspects": 6710,
      "_tokens": 6711,
      "style": 6712,
      "SH": 6713,
      "bul": 6714,
      "93": 6715,
      "KHTML": 6716,
      "fers": 6717,
      "ued": 6718,
      "ably": 6719,
      "WebKit": 6720,
      "propag": 6721,
      "AppleWebKit": 6722,
      "InDays": 6723,
      "substit": 6724,
      "roleType": 6725,
      "Google": 6726,
      "Communication": 6727,
      "iques": 6728,
      "Aks": 6729,
      "agnose": 6730,
      "sqlserver": 6731,
      "Redu": 6732,
      "broad": 6733,
      "wiki": 6734,
      "Aggregation": 6735,
      "varchar": 6736,
      "Threat": 6737,
      "Explore": 6738,
      "logincommand": 6739,
      "DefinitionId": 6740,
      "anet": 6741,
      "blade": 6742,
      "'{": 6743,
      "finishes": 6744,
      "plugins": 6745,
      "Empty": 6746,
      "\"*\"": 6747,
      "*/": 6748,
      "=/": 6749,
      "caches": 6750,
      "people": 6751,
      "Typ": 6752,
      "swit": 6753,
      "Cassandra": 6754,
      "Mi": 6755,
      "cosmosdb": 6756,
      "NSGs": 6757,
      "Scaling": 6758,
      "pin": 6759,
      "configures": 6760,
      "collecting": 6761,
      "meaning": 6762,
      "datacenters": 6763,
      "MAC": 6764,
      "operated": 6765,
      "osite": 6766,
      "temporarily": 6767,
      "jump": 6768,
      "multicloud": 6769,
      "RPO": 6770,
      "theSelect": 6771,
      "encoding": 6772,
      "Email": 6773,
      "degrad": 6774,
      "NetworkAccess": 6775,
      "architectural": 6776,
      "increasing": 6777,
      "confidence": 6778,
      "B2B": 6779,
      "explore": 6780,
      "2e": 6781,
      "hd": 6782,
      "Sys": 6783,
      "Registration": 6784,
      ">.<": 6785,
      "evaluated": 6786,
      "transactional": 6787,
      "Sources": 6788,
      "hyper": 6789,
      "handler": 6790,
      "great": 6791,
      "initiated": 6792,
      "BackendAddress": 6793,
      "Provisioned": 6794,
      "Rate": 6795,
      "REGISTR": 6796,
      "TB": 6797,
      "consent": 6798,
      "decre": 6799,
      "coverage": 6800,
      "2d": 6801,
      "initiate": 6802,
      "reserve": 6803,
      "patches": 6804,
      "Distribut": 6805,
      "Join": 6806,
      "erature": 6807,
      "Subscriptions": 6808,
      "Attestation": 6809,
      "SUBSCRIPTION_ID": 6810,
      "Switch": 6811,
      "theVirtual": 6812,
      "mitted": 6813,
      "Exporter": 6814,
      "Crypto": 6815,
      "Even": 6816,
      "ILogger": 6817,
      "JDK": 6818,
      "ilities": 6819,
      "UseAzure": 6820,
      "5555": 6821,
      "Spe": 6822,
      "sert": 6823,
      "lifetime": 6824,
      "Liberty": 6825,
      "VID": 6826,
      "../": 6827,
      "iving": 6828,
      "warehous": 6829,
      "exporter": 6830,
      "drivers": 6831,
      "calculated": 6832,
      "_url": 6833,
      "dle": 6834,
      "aps": 6835,
      "Intelligence": 6836,
      "packets": 6837,
      "cm": 6838,
      "ers_": 6839,
      "ifactor": 6840,
      "roy": 6841,
      "Two": 6842,
      "1e": 6843,
      "agreement": 6844,
      "Scheduled": 6845,
      "Instrumentation": 6846,
      "ERRO": 6847,
      "frameworks": 6848,
      "Guidance": 6849,
      "orders": 6850,
      "denied": 6851,
      "joined": 6852,
      "followed": 6853,
      "panel": 6854,
      "9999": 6855,
      "Refresh": 6856,
      "satis": 6857,
      "dual": 6858,
      "places": 6859,
      "seeDesign": 6860,
      "aggregate": 6861,
      "offs": 6862,
      "sun": 6863,
      "com_": 6864,
      "-------": 6865,
      "Roles": 6866,
      "circuits": 6867,
      "enrich": 6868,
      "identifies": 6869,
      "Const": 6870,
      "ipv4": 6871,
      "Adapt": 6872,
      "BuiltInRole": 6873,
      "away": 6874,
      "_B": 6875,
      "verification": 6876,
      "html": 6877,
      "Actual": 6878,
      "workspaceName": 6879,
      "_PRO": 6880,
      "Qual": 6881,
      "esh": 6882,
      "beros": 6883,
      "federation": 6884,
      "($\"": 6885,
      "Benchmark": 6886,
      "0e": 6887,
      "suited": 6888,
      "Staging": 6889,
      "notice": 6890,
      "streams": 6891,
      "cru": 6892,
      "Completed": 6893,
      "MANA": 6894,
      "enforcement": 6895,
      "Gre": 6896,
      "guarantee": 6897,
      "cycle": 6898,
      "lu": 6899,
      "goal": 6900,
      "ATH": 6901,
      "Modified": 6902,
      "marked": 6903,
      "acceptable": 6904,
      "ND": 6905,
      "_ResourceId": 6906,
      "simp": 6907,
      "TheAzure": 6908,
      "irect": 6909,
      "HttpResponse": 6910,
      "binary": 6911,
      "Minimum": 6912,
      "Ind": 6913,
      "-----": 6914,
      "Serverless": 6915,
      "CONTENT": 6916,
      "algorithms": 6917,
      "SHA": 6918,
      "heav": 6919,
      "JOIN": 6920,
      "formerly": 6921,
      "00Z": 6922,
      "service_": 6923,
      "everything": 6924,
      "neg": 6925,
      "signals": 6926,
      "AzCopy": 6927,
      "parts": 6928,
      "PublicIP": 6929,
      "SAN": 6930,
      "outer": 6931,
      "reported": 6932,
      "relationship": 6933,
      "reuse": 6934,
      "eting": 6935,
      "Guard": 6936,
      "Partner": 6937,
      "itivity": 6938,
      "stopped": 6939,
      "base64": 6940,
      "_2": 6941,
      "pping": 6942,
      "peak": 6943,
      "Exists": 6944,
      "uncached": 6945,
      "Profiles": 6946,
      "destroy": 6947,
      "flags": 6948,
      "delegated": 6949,
      "JAV": 6950,
      "versionto": 6951,
      "Completion": 6952,
      "DD": 6953,
      "audio": 6954,
      "doing": 6955,
      "OPEN": 6956,
      "measures": 6957,
      "helloworld": 6958,
      "techniques": 6959,
      "programmatically": 6960,
      "spr": 6961,
      "stateful": 6962,
      "Am": 6963,
      "moved": 6964,
      "strict": 6965,
      "auce": 6966,
      "flo": 6967,
      "ran": 6968,
      "wrap": 6969,
      "transparent": 6970,
      "Tcp": 6971,
      "whenever": 6972,
      "ibilities": 6973,
      "Member": 6974,
      "'))]\",": 6975,
      "b5": 6976,
      "upport": 6977,
      "something": 6978,
      "Hash": 6979,
      "qdn": 6980,
      "inherit": 6981,
      "171": 6982,
      "MLflow": 6983,
      "iform": 6984,
      "erraform": 6985,
      "totrue": 6986,
      "ASE_": 6987,
      "QAS_": 6988,
      "SL": 6989,
      "ulate": 6990,
      "oms": 6991,
      "focuses": 6992,
      "ascs_": 6993,
      "selectAzure": 6994,
      "financial": 6995,
      "eastus2": 6996,
      "conversation": 6997,
      "retrieval": 6998,
      "sas": 6999,
      "construct": 7000,
      "withAzure": 7001,
      "natural": 7002,
      "<<": 7003,
      "CNI": 7004,
      "Separ": 7005,
      "apache": 7006,
      "akeholders": 7007,
      "SubnetConfig": 7008,
      "equal": 7009,
      "CMK": 7010,
      "TDE": 7011,
      "Termin": 7012,
      "constraint": 7013,
      "explains": 7014,
      "screenshot": 7015,
      "itives": 7016,
      "EXTER": 7017,
      "PartitionKey": 7018,
      "RESOURCEGROUP": 7019,
      "kit": 7020,
      "peer": 7021,
      "Thrott": 7022,
      "ferent": 7023,
      "250": 7024,
      "FX": 7025,
      "pk": 7026,
      "handled": 7027,
      "Paste": 7028,
      "},\"": 7029,
      "1433": 7030,
      "78": 7031,
      "far": 7032,
      "": 7033,
      "EXTERNAL": 7034,
      "editing": 7035,
      "conflict": 7036,
      "harm": 7037,
      "-->": 7038,
      "retired": 7039,
      "ruit": 7040,
      "ug": 7041,
      "invoice": 7042,
      "didn": 7043,
      "Lic": 7044,
      "ised": 7045,
      "rides": 7046,
      "ipAddress": 7047,
      "retained": 7048,
      "UDP": 7049,
      "UNC": 7050,
      "uary": 7051,
      "ORDER": 7052,
      "PCI": 7053,
      "Purpose": 7054,
      "s1": 7055,
      "assume": 7056,
      "contained": 7057,
      "termination": 7058,
      "NICs": 7059,
      "Feder": 7060,
      "lost": 7061,
      "Symb": 7062,
      "China": 7063,
      "\"))": 7064,
      "Processing": 7065,
      "objective": 7066,
      "ART": 7067,
      "removing": 7068,
      "cassandra": 7069,
      "network_": 7070,
      "ternate": 7071,
      "MSP": 7072,
      "CONTAIN": 7073,
      "Labels": 7074,
      "fr": 7075,
      "repos": 7076,
      "CIS": 7077,
      "factor": 7078,
      "Long": 7079,
      "Sm": 7080,
      "injection": 7081,
      "firewalls": 7082,
      "powershell": 7083,
      "Ph": 7084,
      "SelectOK": 7085,
      "Signal": 7086,
      "Kerberos": 7087,
      "TENA": 7088,
      "_URL": 7089,
      "soon": 7090,
      "characteristics": 7091,
      "Calcul": 7092,
      "TENANT": 7093,
      "March": 7094,
      "lun": 7095,
      "activate": 7096,
      "analyzing": 7097,
      "+=": 7098,
      "}).": 7099,
      "Stamp": 7100,
      "commonly": 7101,
      "seeAuthenticate": 7102,
      "Creation": 7103,
      "ServiceClient": 7104,
      "AzRoleAssignment": 7105,
      "Images": 7106,
      "MANAG": 7107,
      "azuremonitor": 7108,
      "statistics": 7109,
      "RSA": 7110,
      "Transform": 7111,
      "Detection": 7112,
      "FAULT": 7113,
      "Limitations": 7114,
      "invalid": 7115,
      "Created": 7116,
      "exported": 7117,
      "Initi": 7118,
      "vip": 7119,
      "DEFAULT": 7120,
      "mounted": 7121,
      "Equ": 7122,
      "generative": 7123,
      "human": 7124,
      "3A": 7125,
      "sector": 7126,
      "adoption": 7127,
      "quet": 7128,
      "seeMicrosoft": 7129,
      "seeInstall": 7130,
      "visit": 7131,
      "UTF": 7132,
      "Recommended": 7133,
      "pc": 7134,
      "KeyCredential": 7135,
      "resilience": 7136,
      "Syslog": 7137,
      "'[": 7138,
      "workers": 7139,
      "publicly": 7140,
      "implements": 7141,
      "PropertiesFormat": 7142,
      "21Vi": 7143,
      "detects": 7144,
      "virtualMachineScaleSets": 7145,
      "ERROR": 7146,
      "schedules": 7147,
      "checkpoint": 7148,
      "SecurityGroups": 7149,
      "metastore": 7150,
      "CLUSTER_NAME": 7151,
      "country": 7152,
      "fered": 7153,
      "DatabaseName": 7154,
      "Nat": 7155,
      "blog": 7156,
      "ongoing": 7157,
      "bott": 7158,
      "Within": 7159,
      "addr2": 7160,
      "fd": 7161,
      "ilies": 7162,
      "scaled": 7163,
      "visualize": 7164,
      "LDAP": 7165,
      "Close": 7166,
      "Fast": 7167,
      "IPaddr2": 7168,
      "KV": 7169,
      "_VERSION": 7170,
      "suite": 7171,
      "fiber": 7172,
      "retain": 7173,
      "Disaster": 7174,
      ">:": 7175,
      "P2": 7176,
      "DataFrame": 7177,
      "bastion": 7178,
      "Channel": 7179,
      "issued": 7180,
      "Customize": 7181,
      "publishing": 7182,
      "FOR": 7183,
      "sex": 7184,
      "Three": 7185,
      "caused": 7186,
      "blocklist": 7187,
      "broker": 7188,
      "AUTH": 7189,
      "permanent": 7190,
      "bottlen": 7191,
      "wd": 7192,
      "accessToken": 7193,
      "','": 7194,
      "cancel": 7195,
      "runaz": 7196,
      "boundary": 7197,
      "intervals": 7198,
      "visualizations": 7199,
      "CONNECTIONSTRING": 7200,
      "Encrypted": 7201,
      "Archive": 7202,
      "VS": 7203,
      "Runbook": 7204,
      "sembly": 7205,
      "Tracer": 7206,
      "ximate": 7207,
      "theReview": 7208,
      "deep": 7209,
      "ensus": 7210,
      "azapi_": 7211,
      "multifactor": 7212,
      "Models": 7213,
      "blank": 7214,
      "ictionary": 7215,
      "boundaries": 7216,
      "SizeGB": 7217,
      "Bl": 7218,
      "spot": 7219,
      "140": 7220,
      "represented": 7221,
      "Quota": 7222,
      "rop": 7223,
      "Andro": 7224,
      "Locations": 7225,
      "Android": 7226,
      "sid": 7227,
      "manner": 7228,
      "Sec": 7229,
      "notify": 7230,
      "emit": 7231,
      "21Vianet": 7232,
      "rv": 7233,
      "tree": 7234,
      "throw": 7235,
      "iff": 7236,
      "ResourceName": 7237,
      "afety": 7238,
      "synchronous": 7239,
      "AzVirtualNetworkSubnetConfig": 7240,
      "7d": 7241,
      "Origin": 7242,
      "RTO": 7243,
      "](": 7244,
      "mask": 7245,
      "Deploying": 7246,
      "Personal": 7247,
      "DH": 7248,
      "ae": 7249,
      "union": 7250,
      "ckets": 7251,
      "inspect": 7252,
      "particularly": 7253,
      "guarantees": 7254,
      "NODE": 7255,
      "buffer": 7256,
      "periodically": 7257,
      "Accelerated": 7258,
      "crucial": 7259,
      "74": 7260,
      "PA": 7261,
      "facing": 7262,
      "MC": 7263,
      "myapp": 7264,
      "embeddings": 7265,
      "'{\"": 7266,
      "loaded": 7267,
      "conditional": 7268,
      "exports": 7269,
      "Benefit": 7270,
      "Forward": 7271,
      "IDR": 7272,
      "answers": 7273,
      "Safety": 7274,
      "rs": 7275,
      "yg": 7276,
      "theData": 7277,
      "theOverviewpage": 7278,
      "data_": 7279,
      "tested": 7280,
      "**/*.": 7281,
      "simplifies": 7282,
      "ApiManagement": 7283,
      "Requirements": 7284,
      "hierarchical": 7285,
      "seed": 7286,
      "IfNot": 7287,
      "8888": 7288,
      "Raw": 7289,
      "_azure_": 7290,
      "ficult": 7291,
      "matrix": 7292,
      "aligned": 7293,
      "SR": 7294,
      "sand": 7295,
      "igible": 7296,
      "TenantId": 7297,
      "clause": 7298,
      "avor": 7299,
      "SAPInstance": 7300,
      "cise": 7301,
      "full_": 7302,
      "_HN1_HDB03": 7303,
      "DATE": 7304,
      "gment": 7305,
      "Enabling": 7306,
      "ivers": 7307,
      "passes": 7308,
      "locked": 7309,
      "println": 7310,
      "Scan": 7311,
      "lement": 7312,
      "lied": 7313,
      "clientSecret": 7314,
      "_json": 7315,
      "ises": 7316,
      "balancers": 7317,
      "Tom": 7318,
      "_USER": 7319,
      "Rele": 7320,
      "Attach": 7321,
      "Delay": 7322,
      "Webhook": 7323,
      "<!": 7324,
      "CIDR": 7325,
      "DSC": 7326,
      "rights": 7327,
      "referred": 7328,
      "todo": 7329,
      "traces": 7330,
      "spread": 7331,
      "Queries": 7332,
      "SERVER": 7333,
      "rob": 7334,
      "ACK": 7335,
      "db1": 7336,
      "haust": 7337,
      "(.": 7338,
      "rsa": 7339,
      "readiness": 7340,
      "visualstudio": 7341,
      "Flag": 7342,
      "demonstrates": 7343,
      "translation": 7344,
      "pillars": 7345,
      "Speech": 7346,
      "/\"": 7347,
      "a1": 7348,
      "relate": 7349,
      "offset": 7350,
      "EnvironmentVariable": 7351,
      "powered": 7352,
      "commits": 7353,
      "azon": 7354,
      "periods": 7355,
      "daemon": 7356,
      "jdk": 7357,
      "ys": 7358,
      "cmdlets": 7359,
      "budgets": 7360,
      "_HOME": 7361,
      "SB": 7362,
      "repeat": 7363,
      "ada": 7364,
      "101": 7365,
      "consists": 7366,
      "offerings": 7367,
      "Collector": 7368,
      "Balanc": 7369,
      "gl": 7370,
      "RESS": 7371,
      "150": 7372,
      "effects": 7373,
      "drift": 7374,
      "Constants": 7375,
      "'],": 7376,
      "=${": 7377,
      "Burst": 7378,
      "stri": 7379,
      "byte": 7380,
      "Struct": 7381,
      "trends": 7382,
      "Have": 7383,
      "TiB": 7384,
      "seechange": 7385,
      "retirement": 7386,
      "recognition": 7387,
      "datasource": 7388,
      "Setup": 7389,
      "passive": 7390,
      "PROVID": 7391,
      "AzNetworkInterface": 7392,
      "walk": 7393,
      "DiskName": 7394,
      "reduced": 7395,
      "partitioned": 7396,
      "la": 7397,
      "upon": 7398,
      "mini": 7399,
      "fewer": 7400,
      "Different": 7401,
      "remember": 7402,
      "bose": 7403,
      "early": 7404,
      "removes": 7405,
      "Finally": 7406,
      "interest": 7407,
      "IPS": 7408,
      "')[": 7409,
      "maximize": 7410,
      "stamps": 7411,
      "challenges": 7412,
      "Fruit": 7413,
      "estate": 7414,
      "Deleting": 7415,
      "controllers": 7416,
      "anomalies": 7417,
      "AU": 7418,
      "Moderate": 7419,
      "Tomcat": 7420,
      "Capt": 7421,
      "inject": 7422,
      "subdomain": 7423,
      "defender": 7424,
      "Util": 7425,
      "(-": 7426,
      "Useaz": 7427,
      "NetworkRule": 7428,
      "random_": 7429,
      "AZURE_OPENAI_API_KEY": 7430,
      "Severity": 7431,
      "kusto": 7432,
      "sda": 7433,
      "": 7434,
      "ctx": 7435,
      "configurable": 7436,
      "Adding": 7437,
      "consol": 7438,
      "Parallel": 7439,
      "waiting": 7440,
      "RoleDefinitionName": 7441,
      "situations": 7442,
      "JECT": 7443,
      "NG": 7444,
      "opport": 7445,
      "sist": 7446,
      "Modules": 7447,
      "\"],": 7448,
      "ield": 7449,
      "atives": 7450,
      "adminVM": 7451,
      "administration": 7452,
      "Chang": 7453,
      "Home": 7454,
      "_address": 7455,
      "alph": 7456,
      "adopt": 7457,
      "States": 7458,
      "sometimes": 7459,
      "association": 7460,
      "unused": 7461,
      "developing": 7462,
      "ffff": 7463,
      "foundation": 7464,
      "ApplicationId": 7465,
      "EventType": 7466,
      "ACE_": 7467,
      "authority": 7468,
      "licensing": 7469,
      "PLO": 7470,
      "representation": 7471,
      "taking": 7472,
      "introduced": 7473,
      "Consum": 7474,
      "VNets": 7475,
      "Vers": 7476,
      "_cluster": 7477,
      "akes": 7478,
      "upgrading": 7479,
      "91": 7480,
      "@<": 7481,
      "COR": 7482,
      "Estab": 7483,
      "Low": 7484,
      "subscribe": 7485,
      "Establish": 7486,
      ".[": 7487,
      "_table": 7488,
      "theResource": 7489,
      "determined": 7490,
      "AzureWebJobs": 7491,
      "AL_": 7492,
      "NVAs": 7493,
      "umbprint": 7494,
      "managedClusters": 7495,
      "ticket": 7496,
      "Hive": 7497,
      "pres": 7498,
      "addon": 7499,
      "perspective": 7500,
      "tabs": 7501,
      "Templates": 7502,
      "occurred": 7503,
      "rapid": 7504,
      "incidents": 7505,
      "robust": 7506,
      "Versions": 7507,
      "FUNC": 7508,
      "AzSubscription": 7509,
      "\"/>": 7510,
      "Vision": 7511,
      "Dockerfile": 7512,
      "FUNCTION": 7513,
      "(...": 7514,
      "cb": 7515,
      "swe": 7516,
      "upt": 7517,
      "abfs": 7518,
      "portion": 7519,
      "Standard_LRS": 7520,
      "com_contact": 7521,
      "ppy": 7522,
      "ServiceEndpoint": 7523,
      "anything": 7524,
      "ActiveDirectory": 7525,
      "\\\":\\\"": 7526,
      "ratio": 7527,
      "BE": 7528,
      "Zero": 7529,
      "_group": 7530,
      "difficult": 7531,
      "Community": 7532,
      "GCP": 7533,
      "arrow": 7534,
      "Increase": 7535,
      "heavy": 7536,
      "FW": 7537,
      "prepar": 7538,
      "underSettings": 7539,
      "placing": 7540,
      "FabrikamFiber": 7541,
      "Clippy": 7542,
      "=[": 7543,
      "sles": 7544,
      "ustered": 7545,
      "Condition": 7546,
      "_NW1_ERS": 7547,
      "4096": 7548,
      "StormEvents": 7549,
      "Fill": 7550,
      "Split": 7551,
      "vere": 7552,
      "endpoint_name": 7553,
      "credit": 7554,
      "caller": 7555,
      "Library": 7556,
      "Vmss": 7557,
      "cum": 7558,
      "arri": 7559,
      "Clone": 7560,
      "INSERT": 7561,
      "9f": 7562,
      "grid": 7563,
      "toggle": 7564,
      "logAnalytics": 7565,
      "azopenai": 7566,
      "overl": 7567,
      "queued": 7568,
      "skill": 7569,
      "MAX": 7570,
      ".')": 7571,
      "503": 7572,
      "why": 7573,
      "Virtualization": 7574,
      "Previous": 7575,
      "delegation": 7576,
      "Swap": 7577,
      "*'": 7578,
      "SCS": 7579,
      "_node": 7580,
      "evol": 7581,
      "stateless": 7582,
      "temperature": 7583,
      "RUN": 7584,
      "introduce": 7585,
      "produce": 7586,
      "predictable": 7587,
      "Whether": 7588,
      "containerName": 7589,
      "approximate": 7590,
      "searches": 7591,
      "Beh": 7592,
      "FIG": 7593,
      "horizon": 7594,
      "yout": 7595,
      "Provides": 7596,
      "mentioned": 7597,
      "aves": 7598,
      "specification": 7599,
      "bridge": 7600,
      "weekly": 7601,
      "TIME": 7602,
      "involve": 7603,
      "ulator": 7604,
      "Assessment": 7605,
      "}-": 7606,
      "aud": 7607,
      "ightly": 7608,
      "Updated": 7609,
      "Intelli": 7610,
      "department": 7611,
      "TR": 7612,
      "gb": 7613,
      "slow": 7614,
      "Reserved": 7615,
      "bps": 7616,
      "filename": 7617,
      "organize": 7618,
      "PrivateEndpoint": 7619,
      "Detect": 7620,
      "accelerated": 7621,
      "TF": 7622,
      "delta": 7623,
      "decrypt": 7624,
      "Nodes": 7625,
      "position": 7626,
      "bi": 7627,
      "Real": 7628,
      "trying": 7629,
      "AzGraph": 7630,
      "Signature": 7631,
      "Print": 7632,
      "licenses": 7633,
      "Cance": 7634,
      "cy": 7635,
      "rhel": 7636,
      "workbooks": 7637,
      "router": 7638,
      "compression": 7639,
      "resolved": 7640,
      "assessments": 7641,
      "syslog": 7642,
      "cdn": 7643,
      "5c": 7644,
      "vendor": 7645,
      "resourceType": 7646,
      "expired": 7647,
      "kafka": 7648,
      "venture": 7649,
      "installer": 7650,
      "documented": 7651,
      "geograph": 7652,
      "Considerations": 7653,
      "QUE": 7654,
      "ACCOUNT_NAME": 7655,
      "''": 7656,
      "sem": 7657,
      "serves": 7658,
      "boards": 7659,
      "speech": 7660,
      "PLOY": 7661,
      "FIPS": 7662,
      "feeds": 7663,
      "Accelerator": 7664,
      "rd": 7665,
      "ism": 7666,
      "AzLoadBalancer": 7667,
      "Assist": 7668,
      "forwarding": 7669,
      "]$": 7670,
      "inner": 7671,
      "exhaust": 7672,
      "privacy": 7673,
      "Contains": 7674,
      "Capture": 7675,
      "itation": 7676,
      "initialize": 7677,
      "shutdown": 7678,
      "trained": 7679,
      "foo": 7680,
      "CosmosClient": 7681,
      "receiver": 7682,
      "responsibilities": 7683,
      "Finish": 7684,
      "RFC": 7685,
      "Components": 7686,
      "switches": 7687,
      "REGISTRY": 7688,
      "SSIS": 7689,
      "indexer": 7690,
      "communications": 7691,
      "Base64": 7692,
      "situation": 7693,
      "Improve": 7694,
      "Binding": 7695,
      "0x": 7696,
      "_apis": 7697,
      "checking": 7698,
      "Plans": 7699,
      "bulk": 7700,
      "Sto": 7701,
      "bad": 7702,
      "exchange": 7703,
      "whose": 7704,
      "ID1": 7705,
      "approve": 7706,
      "262": 7707,
      "exceeds": 7708,
      "Window": 7709,
      "etab": 7710,
      "differ": 7711,
      "appName": 7712,
      "lator": 7713,
      "=\"/": 7714,
      "VM_": 7715,
      "Understanding": 7716,
      "CORS": 7717,
      ">-<": 7718,
      "Than": 7719,
      "serial": 7720,
      "Permission": 7721,
      "Paths": 7722,
      "legal": 7723,
      "DEPLOY": 7724,
      "678": 7725,
      "captured": 7726,
      "Ant": 7727,
      "b7": 7728,
      "synapse": 7729,
      "NetCore": 7730,
      "osDisk": 7731,
      "Operating": 7732,
      "Month": 7733,
      "concerns": 7734,
      "Native": 7735,
      "Pace": 7736,
      "abstr": 7737,
      "Inv": 7738,
      "classes": 7739,
      "secretName": 7740,
      "CAST": 7741,
      "SPACE": 7742,
      "investigate": 7743,
      "Configuring": 7744,
      "conda": 7745,
      "improves": 7746,
      "engineers": 7747,
      "eled": 7748,
      "recip": 7749,
      "¯=": 7750,
      "CONFIG": 7751,
      "Sampling": 7752,
      "62": 7753,
      "Simple": 7754,
      "{{": 7755,
      "accountbefore": 7756,
      "AzStorage": 7757,
      "Pacemaker": 7758,
      "sbd": 7759,
      "replaced": 7760,
      "reverse": 7761,
      "appId": 7762,
      "visions": 7763,
      "WebSphere": 7764,
      "ProviderNamespace": 7765,
      "Orchestration": 7766,
      "slesmsscl": 7767,
      "theNetworking": 7768,
      "igins": 7769,
      "ETE": 7770,
      "downstream": 7771,
      "families": 7772,
      "manifests": 7773,
      "HandlerVersion": 7774,
      "}\")": 7775,
      "stay": 7776,
      "selectNew": 7777,
      "Employ": 7778,
      "createOption": 7779,
      "ST_": 7780,
      "scheme": 7781,
      "extends": 7782,
      "WORKS": 7783,
      "Sizes": 7784,
      "mill": 7785,
      "vd": 7786,
      "grants": 7787,
      "forecast": 7788,
      "expensive": 7789,
      "MLClient": 7790,
      "_size": 7791,
      "a7": 7792,
      "relies": 7793,
      "cognitives": 7794,
      "cognitiveservices": 7795,
      "6e": 7796,
      "Runt": 7797,
      "Turn": 7798,
      "commer": 7799,
      "standalone": 7800,
      "finity": 7801,
      "MSAL": 7802,
      "computational": 7803,
      "<!--": 7804,
      "Right": 7805,
      "ipconfig": 7806,
      "mlin": 7807,
      "printf": 7808,
      "ConvertTo": 7809,
      "EW": 7810,
      "Ef": 7811,
      "tile": 7812,
      "tutorials": 7813,
      "lined": 7814,
      "spane": 7815,
      "rotate": 7816,
      "APPLICATIONINSIGHTS_": 7817,
      "Vpn": 7818,
      "_C": 7819,
      "friendly": 7820,
      "vSphere": 7821,
      "2013": 7822,
      "anywhere": 7823,
      "keeping": 7824,
      "surface": 7825,
      "WITH_": 7826,
      "proj": 7827,
      "ipConfigurations": 7828,
      "ocation": 7829,
      "5000": 7830,
      "vated": 7831,
      "transport": 7832,
      "Gateways": 7833,
      "sensitivity": 7834,
      "popular": 7835,
      "Browser": 7836,
      "Amazon": 7837,
      "influ": 7838,
      "rolling": 7839,
      "invok": 7840,
      "xxxxxxxxxxx": 7841,
      "Limits": 7842,
      "executing": 7843,
      "Approval": 7844,
      "MSPVM": 7845,
      "Writ": 7846,
      "refs": 7847,
      "stakeholders": 7848,
      "Regulatory": 7849,
      "limiting": 7850,
      "downloads": 7851,
      "hanadb1": 7852,
      "Row": 7853,
      "alter": 7854,
      "monitors": 7855,
      "skills": 7856,
      "equals": 7857,
      "\"$(": 7858,
      "EOF": 7859,
      "GRAN": 7860,
      "STEM": 7861,
      "distance": 7862,
      "illiseconds": 7863,
      "){": 7864,
      "DENTI": 7865,
      "Ep": 7866,
      "JDBC": 7867,
      "_filter": 7868,
      "updatecommand": 7869,
      "...\"": 7870,
      "Lease": 7871,
      "protects": 7872,
      "CREDENTI": 7873,
      "Associate": 7874,
      "threads": 7875,
      "toward": 7876,
      "runbook": 7877,
      "Regions": 7878,
      "spokes": 7879,
      "Offer": 7880,
      "LogInformation": 7881,
      "likeGecko": 7882,
      "eventhub": 7883,
      "Asp": 7884,
      "GitOps": 7885,
      "cheduling": 7886,
      "SLAs": 7887,
      ">?": 7888,
      "IIS": 7889,
      "Os": 7890,
      "eth": 7891,
      "aby": 7892,
      "curing": 7893,
      "conventions": 7894,
      "duplicate": 7895,
      "science": 7896,
      "GRANT": 7897,
      ")\\": 7898,
      "92": 7899,
      "Remember": 7900,
      "acts": 7901,
      "Enforce": 7902,
      "1023": 7903,
      "Gen1": 7904,
      "webAppKind": 7905,
      "SettingValue": 7906,
      "Completions": 7907,
      "presents": 7908,
      "populated": 7909,
      "Watcher": 7910,
      "Typically": 7911,
      "StagingDirectory": 7912,
      "loop": 7913,
      "asg": 7914,
      "Specific": 7915,
      "DEPLOYMENT": 7916,
      "certs": 7917,
      "chose": 7918,
      "ifi": 7919,
      "faults": 7920,
      "trial": 7921,
      "": 7922,
      "InSeconds": 7923,
      "vm1_": 7924,
      "nodepool1": 7925,
      "coordin": 7926,
      "urability": 7927,
      "irror": 7928,
      "STS": 7929,
      "Digital": 7930,
      "Hist": 7931,
      "IF": 7932,
      "NVM": 7933,
      "ape": 7934,
      "x86": 7935,
      "Tests": 7936,
      "purchasing": 7937,
      "specialized": 7938,
      "PORT": 7939,
      "gather": 7940,
      "simulations": 7941,
      "8d": 7942,
      "GZRS": 7943,
      "Lab": 7944,
      "proof": 7945,
      "interpre": 7946,
      "Baseline": 7947,
      "Double": 7948,
      "PY": 7949,
      "Ranges": 7950,
      "ulations": 7951,
      "geographic": 7952,
      "1f": 7953,
      "Physical": 7954,
      "Rg": 7955,
      "V1": 7956,
      "offered": 7957,
      "ultane": 7958,
      "Without": 7959,
      "kubelet": 7960,
      "Reservations": 7961,
      "recurs": 7962,
      "SYSTEM": 7963,
      "Hard": 7964,
      "thest": 7965,
      "logins": 7966,
      "derr": 7967,
      "myregistry": 7968,
      "timer": 7969,
      "GPUs": 7970,
      "},{\"": 7971,
      "ETL": 7972,
      "formatted": 7973,
      "TimeoutInMinutes": 7974,
      "(/": 7975,
      "Hour": 7976,
      "MFA": 7977,
      "theSecurity": 7978,
      "submodules": 7979,
      "azcopy": 7980,
      "Notifications": 7981,
      "Price": 7982,
      "calculate": 7983,
      "ACLs": 7984,
      "Quick": 7985,
      "OLTP": 7986,
      "VAR": 7987,
      "instant": 7988,
      "adminUsername": 7989,
      "ContainerLog": 7990,
      "_PASSWORD": 7991,
      "_max": 7992,
      "ROWS": 7993,
      "ARCHAR": 7994,
      "virtualization": 7995,
      "DEX": 7996,
      "wlsd": 7997,
      "azapi_resource": 7998,
      "sizing": 7999,
      "INDEX": 8000,
      "Arm": 8001,
      "comments": 8002,
      "Recur": 8003,
      "CSP": 8004,
      "referenceName": 8005,
      "committed": 8006,
      "StorageAccountName": 8007,
      "rename": 8008,
      "segmentation": 8009,
      "Frequently": 8010,
      "9a": 8011,
      ">-": 8012,
      "insight": 8013,
      "theApplication": 8014,
      "agree": 8015,
      "Thread": 8016,
      "-----------": 8017,
      "eligible": 8018,
      "storageAccountType": 8019,
      "bugs": 8020,
      "Foundations": 8021,
      "LLM": 8022,
      "sugar": 8023,
      "CLIENTID": 8024,
      "tracing": 8025,
      "labeled": 8026,
      "DSS": 8027,
      "Great": 8028,
      "fabric": 8029,
      "ToString": 8030,
      "(\"<": 8031,
      "tiering": 8032,
      "accepts": 8033,
      "ferences": 8034,
      "TPM": 8035,
      "_PATH": 8036,
      "corresponds": 8037,
      "////////////////////////////////": 8038,
      "Arguments": 8039,
      "nu": 8040,
      "extensive": 8041,
      "generic": 8042,
      "EXEC": 8043,
      "prepared": 8044,
      "Dimensions": 8045,
      "Indic": 8046,
      "Exclude": 8047,
      "functionapp": 8048,
      "P1": 8049,
      "_ENDPOINT": 8050,
      "cook": 8051,
      "backends": 8052,
      "/*\"": 8053,
      "tfx": 8054,
      "HB": 8055,
      "integrations": 8056,
      "LinkService": 8057,
      ".\");": 8058,
      "Contributors": 8059,
      "aaaaaaaa": 8060,
      "vote": 8061,
      "Initialize": 8062,
      "Override": 8063,
      "recurrence": 8064,
      "ygon": 8065,
      "abfss": 8066,
      "10000": 8067,
      "3e": 8068,
      "Manually": 8069,
      "poss": 8070,
      "diagnose": 8071,
      "Registered": 8072,
      ":~": 8073,
      "DM": 8074,
      "theLog": 8075,
      "ourne": 8076,
      "Recogn": 8077,
      "iveness": 8078,
      "showing": 8079,
      "%.": 8080,
      "LM": 8081,
      "shift": 8082,
      "assigns": 8083,
      "Units": 8084,
      "Claims": 8085,
      "License": 8086,
      "AERS": 8087,
      "leep": 8088,
      "MicrosoftWindowsServer": 8089,
      "targetResourceId": 8090,
      "blobServices": 8091,
      "Startup": 8092,
      "simultane": 8093,
      "Protected": 8094,
      "years": 8095,
      "hanadb2": 8096,
      "city": 8097,
      "safety": 8098,
      "intelligent": 8099,
      "systemctl": 8100,
      "eventHub": 8101,
      "Chaos": 8102,
      "months": 8103,
      "'\"": 8104,
      "Bin": 8105,
      "theazure": 8106,
      "Runterraform": 8107,
      "Standard_DS": 8108,
      "acquire": 8109,
      "DELETE": 8110,
      "Es": 8111,
      "FIC": 8112,
      "fle": 8113,
      "explo": 8114,
      "myVNet": 8115,
      "(\"/": 8116,
      "therefore": 8117,
      "individually": 8118,
      "Bit": 8119,
      "Minor": 8120,
      "filtr": 8121,
      "Regular": 8122,
      "tempdb": 8123,
      "SSDs": 8124,
      "calculator": 8125,
      "introduces": 8126,
      "WA": 8127,
      "whole": 8128,
      "AzAD": 8129,
      "movement": 8130,
      "digest": 8131,
      "AllocationMethod": 8132,
      "=(": 8133,
      "seeAssign": 8134,
      "AIL": 8135,
      "ETY_": 8136,
      "_SAF": 8137,
      "beginning": 8138,
      "ChatRequest": 8139,
      "quantity": 8140,
      "CONTENT_SAF": 8141,
      "CONTENT_SAFETY_": 8142,
      "mass": 8143,
      "azureMonitorWorkspaceResourceId": 8144,
      "9c": 8145,
      "multip": 8146,
      "passing": 8147,
      "failing": 8148,
      "paid": 8149,
      "Similarly": 8150,
      "8b": 8151,
      "createto": 8152,
      "weblogic": 8153,
      "ToDoItem": 8154,
      "IfNotExists": 8155,
      "'$": 8156,
      "iles": 8157,
      "log_": 8158,
      "Persistent": 8159,
      "lakehouse": 8160,
      "ROWSET": 8161,
      "ogram": 8162,
      "(\"\\": 8163,
      "admin_": 8164,
      "appliances": 8165,
      "HEAD": 8166,
      "or_update": 8167,
      "AzureWebJobsStorage": 8168,
      "Ctr": 8169,
      "dered": 8170,
      "assur": 8171,
      "Purge": 8172,
      "1h": 8173,
      "lineage": 8174,
      "variety": 8175,
      "experiments": 8176,
      "PublicIPAddress": 8177,
      "Ctrl": 8178,
      "exper": 8179,
      "forms": 8180,
      "EndTime": 8181,
      "Classification": 8182,
      "seamlessly": 8183,
      "random_pet": 8184,
      "hidden": 8185,
      "extr": 8186,
      "Shares": 8187,
      "polling": 8188,
      "DIR": 8189,
      "scm": 8190,
      "typeProperties": 8191,
      "placeholders": 8192,
      "medium": 8193,
      "UserAssignedIdentity": 8194,
      "UNI": 8195,
      "capable": 8196,
      "hourly": 8197,
      "behalf": 8198,
      "deadlock": 8199,
      "create_or_update": 8200,
      "Random": 8201,
      "origins": 8202,
      "canary": 8203,
      "Addon": 8204,
      "Prevent": 8205,
      "uploading": 8206,
      "life": 8207,
      "ReferenceId": 8208,
      "OPENROWSET": 8209,
      "NVMe": 8210,
      "404": 8211,
      "Cmd": 8212,
      "withaz": 8213,
      "Repeat": 8214,
      "doc": 8215,
      "generating": 8216,
      "objectives": 8217,
      "NVID": 8218,
      "conflicts": 8219,
      "unsupported": 8220,
      "identifying": 8221,
      "CLIENT_ID": 8222,
      "relationships": 8223,
      "Title": 8224,
      "to_": 8225,
      "STAT": 8226,
      "objectId": 8227,
      "PerSecond": 8228,
      "00001111": 8229,
      "consuming": 8230,
      "cccc4444": 8231,
      "3333cccc4444": 8232,
      "/[": 8233,
      "ENS": 8234,
      "}}/": 8235,
      "ulation": 8236,
      "IntelliJ": 8237,
      "bac": 8238,
      "plain": 8239,
      "osType": 8240,
      "chunks": 8241,
      "SA": 8242,
      "nature": 8243,
      "vCenter": 8244,
      "numberOf": 8245,
      "widgets": 8246,
      "FunctionApp": 8247,
      "ArtifactStagingDirectory": 8248,
      "clip": 8249,
      "a5": 8250,
      "b6": 8251,
      "theSQL": 8252,
      "buy": 8253,
      "ERTI": 8254,
      "WORKSP": 8255,
      "bs": 8256,
      "ud": 8257,
      "networkProfile": 8258,
      "Extract": 8259,
      "bucket": 8260,
      "Asia": 8261,
      "intermediate": 8262,
      "modifying": 8263,
      "sequential": 8264,
      "granularity": 8265,
      "NVIDIA": 8266,
      "DTU": 8267,
      "Pattern": 8268,
      "UA": 8269,
      "s2": 8270,
      "coded": 8271,
      "appType": 8272,
      "seeDeploy": 8273,
      "AzContext": 8274,
      "query_": 8275,
      "undle": 8276,
      "22222222": 8277,
      "262144": 8278,
      "trun": 8279,
      "Weight": 8280,
      "interactions": 8281,
      "clos": 8282,
      "succeeds": 8283,
      "illustrates": 8284,
      "GW": 8285,
      "omit": 8286,
      "TokenProvider": 8287,
      "ControlNumber": 8288,
      "Maintenance": 8289,
      "8c": 8290,
      "win": 8291,
      "Annotation": 8292,
      "ecks": 8293,
      "Devices": 8294,
      "ManagedCluster": 8295,
      "Heartbeat": 8296,
      "utilized": 8297,
      "decrease": 8298,
      "PASSWORD": 8299,
      "_mode": 8300,
      "_result": 8301,
      "uninstall": 8302,
      "commo": 8303,
      "ClusterId": 8304,
      "3600": 8305,
      "bottlenecks": 8306,
      "wit": 8307,
      "theSet": 8308,
      "quarkus": 8309,
      "Coverage": 8310,
      "public_ip": 8311,
      "GetEnvironmentVariable": 8312,
      "Detail": 8313,
      "Dependencies": 8314,
      "1234": 8315,
      "Reduce": 8316,
      "WH": 8317,
      "sender": 8318,
      "Transport": 8319,
      "CERT": 8320,
      "tail": 8321,
      "resize": 8322,
      "pem": 8323,
      "highlight": 8324,
      "Compare": 8325,
      "Subnets": 8326,
      "8e": 8327,
      "accommo": 8328,
      "overrides": 8329,
      "serving": 8330,
      "advantages": 8331,
      "8f": 8332,
      "------": 8333,
      "/{{": 8334,
      "Emb": 8335,
      "Ig": 8336,
      "WAR": 8337,
      "sv": 8338,
      "tho": 8339,
      "partitionKey": 8340,
      "harden": 8341,
      "cryptographic": 8342,
      "3c": 8343,
      "oney": 8344,
      "KubernetesConfiguration": 8345,
      "DefaultCollection": 8346,
      "maintains": 8347,
      "cfg": 8348,
      "Had": 8349,
      "theOverview": 8350,
      "timechart": 8351,
      "'*'": 8352,
      "p_": 8353,
      "exactly": 8354,
      "AttributeKey": 8355,
      "tradeoffs": 8356,
      "recursive": 8357,
      "Greater": 8358,
      "Ds": 8359,
      "clustered": 8360,
      "Adjust": 8361,
      "storageProfile": 8362,
      "SSO": 8363,
      "tooling": 8364,
      "3389": 8365,
      "vectors": 8366,
      "ENAB": 8367,
      "Bandwidth": 8368,
      "Fault": 8369,
      "jpg": 8370,
      "tring": 8371,
      "unstructured": 8372,
      "Vide": 8373,
      "varies": 8374,
      ">@<": 8375,
      "ipt": 8376,
      "upstream": 8377,
      "needing": 8378,
      "balanced": 8379,
      "elevated": 8380,
      "mitigation": 8381,
      "integer": 8382,
      "iate": 8383,
      "ston": 8384,
      "selectReview": 8385,
      "129": 8386,
      "mlflow": 8387,
      "Expir": 8388,
      "uptime": 8389,
      "{'": 8390,
      "workspace_id": 8391,
      "():": 8392,
      "Notice": 8393,
      "Integrated": 8394,
      "----------------------------------------------------------------": 8395,
      "Mg": 8396,
      "pho": 8397,
      "research": 8398,
      "urning": 8399,
      "Help": 8400,
      "upgraded": 8401,
      "numeric": 8402,
      "TOP": 8403,
      "_prefix": 8404,
      "tise": 8405,
      "closest": 8406,
      "Ger": 8407,
      "Gate": 8408,
      "stor": 8409,
      "Adoption": 8410,
      "AzAks": 8411,
      "resolver": 8412,
      "Utc": 8413,
      "audience": 8414,
      "exposure": 8415,
      "A1": 8416,
      "Day": 8417,
      "cir": 8418,
      "pd": 8419,
      "rev": 8420,
      "source_": 8421,
      "HttpTrigger": 8422,
      "Embed": 8423,
      "Bet": 8424,
      "HUB": 8425,
      "scape": 8426,
      "LOGIN": 8427,
      "summarizes": 8428,
      "NFSv4": 8429,
      "AzResourceGroupDeployment": 8430,
      "compromised": 8431,
      "9e": 8432,
      "YY": 8433,
      "exfiltr": 8434,
      "enses": 8435,
      "NetworkSecurityGroup": 8436,
      "ManagedIdentityCredential": 8437,
      "Volumes": 8438,
      "ourney": 8439,
      "(\"@": 8440,
      "Word": 8441,
      "drives": 8442,
      "supply": 8443,
      "EV": 8444,
      "xili": 8445,
      "idate": 8446,
      "ResourceTags": 8447,
      "diskName": 8448,
      "...]": 8449,
      "strongly": 8450,
      "################": 8451,
      "Hadoop": 8452,
      "stonith": 8453,
      "3000": 8454,
      "cold": 8455,
      "selectEdit": 8456,
      "Works": 8457,
      "\\\",\\\"": 8458,
      "}?": 8459,
      "sel": 8460,
      "setvariable": 8461,
      "azidentity": 8462,
      "twin": 8463,
      "Distributed": 8464,
      "xiliary": 8465,
      "PG": 8466,
      "¦": 8467,
      "ResourceProvider": 8468,
      "Encoding": 8469,
      "overwrite": 8470,
      "learned": 8471,
      "ephemeral": 8472,
      "smart": 8473,
      "achieving": 8474,
      "VALUE": 8475,
      ".,": 8476,
      "Who": 8477,
      "mesh": 8478,
      "identical": 8479,
      "DoD": 8480,
      "Symbol": 8481,
      "(@": 8482,
      "bject": 8483,
      "tops": 8484,
      "datastore": 8485,
      "fileof": 8486,
      "ASCS00": 8487,
      "turned": 8488,
      "429": 8489,
      "durable": 8490,
      "}`": 8491,
      "enet": 8492,
      "cl1": 8493,
      "grouping": 8494,
      "Blobs": 8495,
      "sql_": 8496,
      "Your_": 8497,
      "ikes": 8498,
      "involved": 8499,
      "Replica": 8500,
      ")\",": 8501,
      "sales": 8502,
      "Activ": 8503,
      "originally": 8504,
      "shards": 8505,
      "Area": 8506,
      "omic": 8507,
      "adminPassword": 8508,
      "Child": 8509,
      "Hosted": 8510,
      "Meas": 8511,
      "seven": 8512,
      "contract": 8513,
      "youâ": 8514,
      "mappings": 8515,
      "transformations": 8516,
      "ADDRESS": 8517,
      "isolate": 8518,
      "FrontendIp": 8519,
      "Mac": 8520,
      "_version": 8521,
      "enforced": 8522,
      "unities": 8523,
      "AzApplicationGateway": 8524,
      "publicNetworkAccess": 8525,
      "valuable": 8526,
      "implementations": 8527,
      "SeeAzure": 8528,
      "FIX": 8529,
      "facilitate": 8530,
      "T00": 8531,
      "fence": 8532,
      "prometheus": 8533,
      "204": 8534,
      "cloudapp": 8535,
      "localized": 8536,
      "Members": 8537,
      "middle": 8538,
      "1Ownership": 8539,
      "6f": 8540,
      "Vulner": 8541,
      "Manifest": 8542,
      "303": 8543,
      "redirected": 8544,
      "anft": 8545,
      "stsap": 8546,
      "NoteThe": 8547,
      "Tran": 8548,
      "kubeconfig": 8549,
      "Incremental": 8550,
      "Placement": 8551,
      "anftstsap": 8552,
      "'@": 8553,
      "S3": 8554,
      "exceeded": 8555,
      "diskSizeGB": 8556,
      "vm2_": 8557,
      "retrieves": 8558,
      "gen2": 8559,
      "Video": 8560,
      "\"##": 8561,
      "Scheduler": 8562,
      "comma": 8563,
      "disabling": 8564,
      "::/": 8565,
      "WorkspaceName": 8566,
      "widget": 8567,
      "begins": 8568,
      "expectations": 8569,
      "PIM": 8570,
      "Rename": 8571,
      "impl": 8572,
      "alloc": 8573,
      "StorageV2": 8574,
      "carefully": 8575,
      ">\":": 8576,
      "Rm": 8577,
      "bes": 8578,
      "lcome": 8579,
      "virtualmachines": 8580,
      "DataFactory": 8581,
      "Installed": 8582,
      "targeted": 8583,
      "Reporting": 8584,
      "Lower": 8585,
      "\\<": 8586,
      "yum": 8587,
      "onical": 8588,
      "grace": 8589,
      "ConfigMap": 8590,
      "scans": 8591,
      "satisf": 8592,
      "5d": 8593,
      "Dir": 8594,
      "lack": 8595,
      "forAzure": 8596,
      "ustral": 8597,
      "recording": 8598,
      "etype": 8599,
      "accordingly": 8600,
      "\"},\"": 8601,
      "94": 8602,
      "encounter": 8603,
      "entered": 8604,
      "Acqu": 8605,
      "Shard": 8606,
      "distributions": 8607,
      "FunctionName": 8608,
      "accomp": 8609,
      "Which": 8610,
      "Outputs": 8611,
      "Bre": 8612,
      "OID": 8613,
      "is_": 8614,
      "Enables": 8615,
      "NoteIf": 8616,
      "Bud": 8617,
      "leftouter": 8618,
      "================================": 8619,
      "Like": 8620,
      "4_": 8621,
      "9d": 8622,
      "revision": 8623,
      "followingAzure": 8624,
      "keyword": 8625,
      "showcommand": 8626,
      "persistence": 8627,
      "LinkedService": 8628,
      "HCI": 8629,
      "grouped": 8630,
      "solute": 8631,
      "Plane": 8632,
      "Evaluation": 8633,
      "prioritize": 8634,
      "1c": 8635,
      "Aml": 8636,
      "RD": 8637,
      "VE": 8638,
      "gp": 8639,
      "iber": 8640,
      "scsi": 8641,
      "thernet": 8642,
      "letters": 8643,
      "27001": 8644,
      "STATUS": 8645,
      "Igno": 8646,
      "RR": 8647,
      "a0": 8648,
      "proactively": 8649,
      "azureOpenAI": 8650,
      "ServiceIdentity": 8651,
      "startTime": 8652,
      "webhooks": 8653,
      "limitation": 8654,
      "descriptions": 8655,
      "channels": 8656,
      "Blue": 8657,
      "href": 8658,
      "ensor": 8659,
      "Experi": 8660,
      "Caution": 8661,
      "READY": 8662,
      "SBD": 8663,
      "CC": 8664,
      "PHP": 8665,
      "suites": 8666,
      "Stage": 8667,
      "IPsec": 8668,
      "myFruit": 8669,
      "identityIds": 8670,
      "Subject": 8671,
      "Workflows": 8672,
      "pg_": 8673,
      "sprint": 8674,
      "Pos": 8675,
      "_at": 8676,
      "edition": 8677,
      "prints": 8678,
      "Locate": 8679,
      "Agile": 8680,
      "vmss0000": 8681,
      "b0": 8682,
      "esection": 8683,
      "donâ": 8684,
      "ExpressRouteCircuit": 8685,
      "SW": 8686,
      "composite": 8687,
      "Products": 8688,
      "Null": 8689,
      "Sdk": 8690,
      "sust": 8691,
      "unable": 8692,
      "sp_": 8693,
      "Visio": 8694,
      "copying": 8695,
      "NW2": 8696,
      "TemplateFile": 8697,
      "xmlfile": 8698,
      "(...)": 8699,
      "b2": 8700,
      "\":[{\"": 8701,
      "AMP": 8702,
      "tunnel": 8703,
      "EastUS": 8704,
      "flat": 8705,
      "gree": 8706,
      "usable": 8707,
      "Excel": 8708,
      "expiry": 8709,
      "selves": 8710,
      "slice": 8711,
      "ultra": 8712,
      "serviceEndpoint": 8713,
      "sym": 8714,
      "aking": 8715,
      ",$": 8716,
      "Big": 8717,
      "Put": 8718,
      "Risk": 8719,
      "ists": 8720,
      "ContainerName": 8721,
      "Begin": 8722,
      "receiving": 8723,
      "improving": 8724,
      "preparation": 8725,
      "VER": 8726,
      "mirror": 8727,
      "funda": 8728,
      "osProfile": 8729,
      "specifications": 8730,
      "versus": 8731,
      "crash": 8732,
      "Regional": 8733,
      "Resolver": 8734,
      "zy": 8735,
      "exam": 8736,
      "privateIPAddress": 8737,
      "similarity": 8738,
      "Integrations": 8739,
      "Reset": 8740,
      "seeMonitor": 8741,
      "installs": 8742,
      "statuses": 8743,
      "Uniform": 8744,
      "SSMS": 8745,
      "themselves": 8746,
      "indicators": 8747,
      "Authorize": 8748,
      "Measure": 8749,
      "_MANAG": 8750,
      "lation": 8751,
      "},{": 8752,
      "107": 8753,
      "Dynam": 8754,
      "Redundant": 8755,
      "Bas": 8756,
      "LP": 8757,
      "p_name": 8758,
      "seeEnable": 8759,
      "loadBalancer": 8760,
      "min_": 8761,
      "clustering": 8762,
      "IpAddresses": 8763,
      "accidental": 8764,
      ">:<": 8765,
      "WN": 8766,
      "fc": 8767,
      "~/.": 8768,
      "exer": 8769,
      "admins": 8770,
      "organized": 8771,
      "axi": 8772,
      "digital": 8773,
      "grep": 8774,
      "vac": 8775,
      "seeAbout": 8776,
      "primar": 8777,
      "HttpClient": 8778,
      "FAQs": 8779,
      "permanently": 8780,
      "ERTIFIC": 8781,
      "Est": 8782,
      "theEnable": 8783,
      "todouble": 8784,
      "apped": 8785,
      "amage": 8786,
      "_SHA": 8787,
      "oled": 8788,
      "redeploy": 8789,
      "appsettings": 8790,
      "SOC": 8791,
      "inspe": 8792,
      "Individ": 8793,
      "a2": 8794,
      "spikes": 8795,
      "Enh": 8796,
      "KEK": 8797,
      "sunder": 8798,
      "Behavior": 8799,
      "_work": 8800,
      "tar": 8801,
      "implicit": 8802,
      "Week": 8803,
      "tenant_id": 8804,
      "queueName": 8805,
      "labeling": 8806,
      "principle": 8807,
      "yyyy": 8808,
      "UBLI": 8809,
      "JAR": 8810,
      "rase": 8811,
      "today": 8812,
      "Inc": 8813,
      "Insert": 8814,
      "TelemetryInitial": 8815,
      "Secondary": 8816,
      "Gen5_": 8817,
      "accommodate": 8818,
      "Oc": 8819,
      "_for": 8820,
      "vg": 8821,
      "onto": 8822,
      "theREST": 8823,
      "ulated": 8824,
      "apr": 8825,
      "agentless": 8826,
      "six": 8827,
      "Recognition": 8828,
      "/?": 8829,
      "got": 8830,
      "repe": 8831,
      "datad": 8832,
      "/\",": 8833,
      "Master": 8834,
      "kustom": 8835,
      "tls": 8836,
      "==\"": 8837,
      "executions": 8838,
      "pushed": 8839,
      "ING_": 8840,
      "Gremlin": 8841,
      "exfiltration": 8842,
      "orum": 8843,
      "AzureFirewall": 8844,
      "Progress": 8845,
      "SQLServer": 8846,
      "customization": 8847,
      "completing": 8848,
      "elli": 8849,
      "interaction": 8850,
      "consideration": 8851,
      "begin_": 8852,
      "RestMethod": 8853,
      "MiB": 8854,
      "tohttps": 8855,
      "lowest": 8856,
      "accesses": 8857,
      "geography": 8858,
      "utilize": 8859,
      "Automatically": 8860,
      "hana_": 8861,
      "\"}}": 8862,
      "(`": 8863,
      "+\"": 8864,
      "_enabled": 8865,
      "mix": 8866,
      "ents": 8867,
      "SecureString": 8868,
      "observed": 8869,
      "asynchronously": 8870,
      "promote": 8871,
      ">(": 8872,
      "Pending": 8873,
      "VI": 8874,
      "_reason": 8875,
      "ban": 8876,
      "durability": 8877,
      "etag": 8878,
      "emails": 8879,
      "growth": 8880,
      "resume": 8881,
      "upy": 8882,
      "Resolution": 8883,
      "REPL": 8884,
      "cludes": 8885,
      "portaland": 8886,
      "conduct": 8887,
      "UserName": 8888,
      "Redirect": 8889,
      "session_id": 8890,
      "synchronized": 8891,
      "Techn": 8892,
      "primarily": 8893,
      "+)": 8894,
      "Tls": 8895,
      "things": 8896,
      "advance": 8897,
      "regex": 8898,
      "causing": 8899,
      "hsm": 8900,
      "Aug": 8901,
      "AzVmss": 8902,
      "AMA": 8903,
      "Systems": 8904,
      "ORG": 8905,
      "Governance": 8906,
      "ScaleSetName": 8907,
      "recipient": 8908,
      "accomplish": 8909,
      "655": 8910,
      "HC": 8911,
      "rank": 8912,
      "song": 8913,
      "vhd": 8914,
      "theApp": 8915,
      "adver": 8916,
      "Quarkus": 8917,
      "migrations": 8918,
      "refine": 8919,
      "BackendAddressPool": 8920,
      "ContainerLogV2": 8921,
      "addons": 8922,
      "AzDisk": 8923,
      "John": 8924,
      "SERVICE_": 8925,
      "Ignore": 8926,
      "Bad": 8927,
      "Gw": 8928,
      "IL": 8929,
      "|--": 8930,
      "seeData": 8931,
      "mainframe": 8932,
      "Runs": 8933,
      "designated": 8934,
      "Err": 8935,
      "FILE_": 8936,
      "UILD": 8937,
      "LinkedIn": 8938,
      "hadoop": 8939,
      "AspNetCore": 8940,
      "=\\\"": 8941,
      "FE": 8942,
      "Compose": 8943,
      "ManagedServiceIdentity": 8944,
      "decid": 8945,
      "_NW2_": 8946,
      "Handle": 8947,
      "EVENT": 8948,
      "asters": 8949,
      "clicking": 8950,
      "waits": 8951,
      "7f": 8952,
      "alternate": 8953,
      "yourorganization": 8954,
      "datat": 8955,
      "Discovery": 8956,
      "Twins": 8957,
      "warehousing": 8958,
      "Che": 8959,
      "P_": 8960,
      "seeUnderstand": 8961,
      "repair": 8962,
      "Avg": 8963,
      "recently": 8964,
      "convention": 8965,
      "bone": 8966,
      "izable": 8967,
      "desk": 8968,
      "Addresses": 8969,
      "eviction": 8970,
      "affecting": 8971,
      "validates": 8972,
      "Fr": 8973,
      "kins": 8974,
      "seeOverview": 8975,
      "Selecting": 8976,
      "impacted": 8977,
      "converted": 8978,
      "agreements": 8979,
      "Give": 8980,
      "SFTP": 8981,
      "cron": 8982,
      "ode": 8983,
      "Managing": 8984,
      "listing": 8985,
      "exec_": 8986,
      "Gov": 8987,
      "aliases": 8988,
      "obtained": 8989,
      "HyperV": 8990,
      "Em": 8991,
      "Mer": 8992,
      "_uri": 8993,
      "pvc": 8994,
      "AzureAD": 8995,
      "vember": 8996,
      "verified": 8997,
      "spar": 8998,
      "discovered": 8999,
      "November": 9000,
      "Expected": 9001,
      "backbone": 9002,
      "alet": 9003,
      "selectCreateto": 9004,
      "DHCP": 9005,
      "LE_NAME": 9006,
      "dll": 9007,
      "conven": 9008,
      "Topology": 9009,
      "roleDefinitionId": 9010,
      "partial": 9011,
      "ClientSecret": 9012,
      "bench": 9013,
      "Ports": 9014,
      "HybridCompute": 9015,
      "][": 9016,
      "seeAdd": 9017,
      "KeyName": 9018,
      "Unique": 9019,
      "aviors": 9020,
      "_PACK": 9021,
      "simplified": 9022,
      "CounterName": 9023,
      "approvals": 9024,
      "uc": 9025,
      "ighb": 9026,
      "367": 9027,
      "segments": 9028,
      "THON": 9029,
      "********************************": 9030,
      "enkins": 9031,
      "AzureKeyCredential": 9032,
      "kinds": 9033,
      "phone": 9034,
      "bootstr": 9035,
      "frequent": 9036,
      "Received": 9037,
      "TFVC": 9038,
      "prebuilt": 9039,
      "mycontainer": 9040,
      "Workspaces": 9041,
      "callback": 9042,
      "computers": 9043,
      "Environments": 9044,
      "restric": 9045,
      "presented": 9046,
      "____": 9047,
      "WHEN": 9048,
      "aVisio": 9049,
      "anding": 9050,
      "liberty": 9051,
      "DataProtection": 9052,
      "publicIP": 9053,
      "Discover": 9054,
      "filesystem": 9055,
      "tabular": 9056,
      "consistently": 9057,
      "leading": 9058,
      "Family1": 9059,
      "residency": 9060,
      "2Ownership": 9061,
      "Jul": 9062,
      "LAN": 9063,
      "S2": 9064,
      "picious": 9065,
      "registr": 9066,
      "Synchron": 9067,
      "divi": 9068,
      "ED_": 9069,
      "Steps": 9070,
      "HOST": 9071,
      "journey": 9072,
      "pfx": 9073,
      "ision": 9074,
      "azfw": 9075,
      "Views": 9076,
      "symbols": 9077,
      "Hot": 9078,
      "rewrite": 9079,
      "incorrect": 9080,
      "stops": 9081,
      "Logix": 9082,
      "autoUpgrade": 9083,
      "AccessToken": 9084,
      "Unhealthy": 9085,
      "Parquet": 9086,
      "flush": 9087,
      "ignored": 9088,
      "THEN": 9089,
      "estimated": 9090,
      "simply": 9091,
      "Effect": 9092,
      "cand": 9093,
      "yield": 9094,
      "reader": 9095,
      "recorded": 9096,
      "Germany": 9097,
      "theStorage": 9098,
      "set_": 9099,
      "seeQuickstart": 9100,
      "owned": 9101,
      "reviews": 9102,
      "authoring": 9103,
      "orchestrator": 9104,
      "accelerator": 9105,
      "PT1H": 9106,
      "ODBC": 9107,
      "auge": 9108,
      "afree": 9109,
      "Filters": 9110,
      "boxes": 9111,
      "FSLogix": 9112,
      "restarts": 9113,
      "4j": 9114,
      "CN": 9115,
      "keyless": 9116,
      "ibly": 9117,
      "publicIp": 9118,
      "aws": 9119,
      "Recurrence": 9120,
      "MinorVersion": 9121,
      "theManaged": 9122,
      "networkSecurityGroup": 9123,
      "ensibility": 9124,
      "periodic": 9125,
      "react": 9126,
      "assembly": 9127,
      "utility": 9128,
      "useAzureMonitor": 9129,
      "Getting": 9130,
      "credits": 9131,
      "hyph": 9132,
      "dropped": 9133,
      "scanner": 9134,
      "restriction": 9135,
      "embedded": 9136,
      "client_secret": 9137,
      "BEGIN": 9138,
      "%%": 9139,
      "aut": 9140,
      "scheduler": 9141,
      "aming": 9142,
      "access_token": 9143,
      "primit": 9144,
      "Getenv": 9145,
      "hasn": 9146,
      "modifications": 9147,
      "NotIn": 9148,
      "PYTHON": 9149,
      "AKV": 9150,
      "asAzure": 9151,
      "React": 9152,
      "monitor_": 9153,
      "scores": 9154,
      "tiered": 9155,
      "Organizations": 9156,
      "wwwroot": 9157,
      "eliminate": 9158,
      "Spo": 9159,
      "Xml": 9160,
      "todatetime": 9161,
      "keyName": 9162,
      "Logical": 9163,
      "protecting": 9164,
      "Triggers": 9165,
      "confirmation": 9166,
      "Scala": 9167,
      "upyter": 9168,
      "Technical": 9169,
      "CF": 9170,
      "Clear": 9171,
      "Series": 9172,
      "south": 9173,
      "bearer": 9174,
      "apan": 9175,
      "Calculator": 9176,
      "F1": 9177,
      "MT": 9178,
      "mally": 9179,
      "unplanned": 9180,
      "affinity": 9181,
      "SelectNextto": 9182,
      "thodo": 9183,
      "Fig": 9184,
      "fqdn": 9185,
      "rdb": 9186,
      "fork": 9187,
      "exposes": 9188,
[...]
